<unk>	0
<s>	0
</s>	0
▁t	-0
he	-1
▁a	-2
▁s	-3
▁w	-4
nd	-5
▁the	-6
ed	-7
▁b	-8
▁to	-9
▁and	-10
▁T	-11
▁h	-12
▁f	-13
in	-14
▁wa	-15
re	-16
it	-17
ou	-18
▁l	-19
▁d	-20
▁c	-21
▁p	-22
▁The	-23
ay	-24
▁m	-25
er	-26
▁was	-27
om	-28
▁he	-29
is	-30
▁n	-31
im	-32
ar	-33
on	-34
▁sa	-35
ll	-36
id	-37
▁S	-38
▁ha	-39
▁g	-40
at	-41
ing	-42
ot	-43
en	-44
an	-45
le	-46
or	-47
end	-48
▁"	-49
ir	-50
▁H	-51
of	-52
am	-53
▁They	-54
et	-55
▁it	-56
▁th	-57
ig	-58
▁He	-59
▁pl	-60
▁in	-61
il	-62
ow	-63
ver	-64
ri	-65
▁u	-66
ut	-67
▁play	-68
▁O	-69
ith	-70
▁said	-71
▁be	-72
▁Tim	-73
▁day	-74
▁with	-75
pp	-76
▁On	-77
▁y	-78
ked	-79
oo	-80
▁r	-81
▁her	-82
ex	-83
ce	-84
▁I	-85
ld	-86
▁She	-87
▁his	-88
▁st	-89
ke	-90
▁big	-91
▁L	-92
nt	-93
ck	-94
very	-95
▁you	-96
st	-97
ve	-98
▁B	-99
un	-100
▁happ	-101
▁on	-102
all	-103
riend	-104
▁friend	-105
ext	-106
▁they	-107
oft	-108
ily	-109
▁M	-110
▁we	-111
▁had	-112
▁up	-113
▁li	-114
▁not	-115
her	-116
▁want	-117
itt	-118
▁of	-119
<|	-120
|>	-121
▁<|	-122
endoft	-123
endoftext	-124
ad	-125
▁do	-126
▁e	-127
se	-128
▁happy	-129
ent	-130
▁very	-131
es	-132
▁saw	-133
▁One	-134
▁A	-135
▁that	-136
ould	-137
▁Lily	-138
▁for	-139
ittle	-140
▁mom	-141
▁little	-142
▁sh	-143
▁she	-144
▁Tom	-145
ime	-146
ch	-147
▁nam	-148
▁time	-149
▁k	-150
▁so	-151
ound	-152
."	-153
▁there	-154
▁named	-155
▁bo	-156
▁sm	-157
▁were	-158
▁wanted	-159
▁ne	-160
▁friends	-161
out	-162
ird	-163
▁but	-164
ved	-165
ht	-166
!"	-167
▁bird	-168
el	-169
ake	-170
▁an	-171
al	-172
▁too	-173
ome	-174
▁went	-175
▁wh	-176
ide	-177
▁Once	-178
▁It	-179
▁all	-180
▁hel	-181
ug	-182
ue	-183
▁help	-184
▁is	-185
▁loo	-186
▁upon	-187
▁lo	-188
ter	-189
ry	-190
▁toy	-191
ore	-192
▁fun	-193
ind	-194
get	-195
ill	-196
ame	-197
▁as	-198
▁j	-199
ra	-200
▁at	-201
gether	-202
▁o	-203
▁cat	-204
▁did	-205
▁re	-206
ur	-207
▁together	-208
ack	-209
▁se	-210
ly	-211
▁tre	-212
ood	-213
▁dog	-214
ic	-215
▁could	-216
ted	-217
▁can	-218
▁ball	-219
ard	-220
▁gir	-221
▁their	-222
ark	-223
▁girl	-224
▁played	-225
ec	-226
my	-227
▁him	-228
▁ro	-229
▁go	-230
way	-231
?"	-232
hed	-233
▁But	-234
ain	-235
▁kn	-236
▁le	-237
hen	-238
▁out	-239
▁are	-240
▁fr	-241
um	-242
▁them	-243
▁boy	-244
▁sad	-245
▁W	-246
▁Sue	-247
ul	-248
ax	-249
▁tree	-250
other	-251
oug	-252
▁man	-253
▁loved	-254
▁Max	-255
▁have	-256
▁cl	-257
▁found	-258
▁looked	-259
▁sp	-260
▁star	-261
▁sc	-262
one	-263
▁back	-264
own	-265
hing	-266
▁Ben	-267
are	-268
▁like	-269
▁Sam	-270
▁bec	-271
side	-272
ful	-273
▁me	-274
op	-275
ong	-276
▁park	-277
▁would	-278
ight	-279
▁liked	-280
round	-281
elt	-282
▁fa	-283
▁J	-284
▁car	-285
▁make	-286
ell	-287
▁felt	-288
▁la	-289
▁asked	-290
You	-291
ared	-292
omet	-293
ice	-294
▁came	-295
▁new	-296
▁started	-297
ag	-298
▁see	-299
▁no	-300
ought	-301
ouse	-302
▁Sp	-303
▁al	-304
▁F	-305
iled	-306
▁ag	-307
▁other	-308
▁good	-309
▁somet	-310
▁small	-311
▁br	-312
ob	-313
▁Spot	-314
ss	-315
▁smiled	-316
ade	-317
ried	-318
ings	-319
▁say	-320
▁find	-321
▁wor	-322
▁away	-323
▁from	-324
▁thought	-325
▁made	-326
▁what	-327
▁ex	-328
▁home	-329
▁playing	-330
ened	-331
▁something	-332
ty	-333
▁put	-334
▁every	-335
▁co	-336
▁wal	-337
ach	-338
▁mu	-339
ia	-340
uc	-341
ook	-342
ie	-343
ny	-344
▁again	-345
▁ran	-346
▁down	-347
ile	-348
dd	-349
arn	-350
▁toys	-351
ave	-352
▁pr	-353
king	-354
▁scared	-355
▁some	-356
▁took	-357
▁laug	-358
▁Mia	-359
▁house	-360
▁fl	-361
if	-362
ab	-363
▁around	-364
▁box	-365
▁sw	-366
ure	-367
ick	-368
▁learn	-369
ep	-370
ret	-371
ish	-372
oud	-373
uck	-374
▁your	-375
▁lived	-376
▁You	-377
▁things	-378
▁sun	-379
▁then	-380
▁will	-381
ew	-382
▁bl	-383
▁my	-384
as	-385
▁So	-386
▁when	-387
▁ab	-388
▁Mom	-389
pped	-390
,"	-391
us	-392
▁get	-393
ank	-394
▁ch	-395
▁lot	-396
ap	-397
ucy	-398
oth	-399
ump	-400
▁who	-401
▁tried	-402
▁Lucy	-403
ist	-404
▁fe	-405
▁know	-406
▁Bob	-407
▁got	-408
ited	-409
Th	-410
ust	-411
▁D	-412
▁many	-413
▁about	-414
▁says	-415
▁int	-416
ally	-417
nder	-418
▁red	-419
▁knew	-420
▁pret	-421
ive	-422
▁dec	-423
ise	-424
ous	-425
▁any	-426
au	-427
ace	-428
▁E	-429
▁care	-430
▁more	-431
▁pic	-432
qu	-433
▁best	-434
ause	-435
▁op	-436
fter	-437
▁became	-438
▁And	-439
▁po	-440
▁water	-441
ways	-442
fe	-443
▁hug	-444
▁learned	-445
▁exc	-446
▁because	-447
ite	-448
▁always	-449
▁look	-450
▁v	-451
▁outside	-452
▁into	-453
▁room	-454
▁both	-455
▁un	-456
ided	-457
▁show	-458
▁laughed	-459
▁eat	-460
▁decided	-461
▁ho	-462
▁gre	-463
urp	-464
udd	-465
ant	-466
▁pe	-467
ers	-468
▁Then	-469
▁When	-470
▁jump	-471
nn	-472
▁long	-473
▁one	-474
▁ke	-475
▁this	-476
▁run	-477
▁nice	-478
Yes	-479
▁excited	-480
▁Ann	-481
▁fast	-482
▁feel	-483
▁dad	-484
▁told	-485
▁mo	-486
▁sk	-487
▁inside	-488
our	-489
▁am	-490
▁tr	-491
▁sl	-492
ull	-493
lew	-494
▁His	-495
▁sor	-496
▁take	-497
urpr	-498
▁rock	-499
iny	-500
▁pretty	-501
▁Fr	-502
▁surpr	-503
▁gave	-504
▁each	-505
▁Amy	-506
▁gra	-507
imal	-508
ink	-509
▁animal	-510
▁much	-511
▁C	-512
▁Anna	-513
▁how	-514
▁str	-515
▁old	-516
▁need	-517
▁than	-518
▁let	-519
▁As	-520
hat	-521
ven	-522
ara	-523
ged	-524
▁tow	-525
ess	-526
▁under	-527
▁sorry	-528
og	-529
▁or	-530
ro	-531
▁walked	-532
▁cle	-533
and	-534
▁ta	-535
▁hand	-536
ge	-537
ised	-538
▁fish	-539
urn	-540
▁te	-541
urt	-542
▁kind	-543
ff	-544
▁clo	-545
▁Sara	-546
here	-547
▁wat	-548
▁In	-549
▁Her	-550
ving	-551
▁hig	-552
▁animals	-553
ase	-554
▁just	-555
▁us	-556
▁happened	-557
ched	-558
▁food	-559
▁sky	-560
▁flow	-561
▁sn	-562
▁ide	-563
▁try	-564
▁list	-565
▁We	-566
▁near	-567
▁From	-568
pl	-569
gry	-570
▁didn	-571
▁idea	-572
▁bet	-573
▁en	-574
able	-575
ine	-576
ate	-577
▁fi	-578
▁flew	-579
eci	-580
▁its	-581
ream	-582
▁careful	-583
▁share	-584
▁cake	-585
▁heard	-586
▁better	-587
Thank	-588
▁tw	-589
▁stor	-590
▁if	-591
ecial	-592
▁special	-593
▁dan	-594
pec	-595
ber	-596
ion	-597
▁Every	-598
▁bear	-599
▁lots	-600
▁wind	-601
lf	-602
more	-603
▁anymore	-604
udden	-605
▁clean	-606
▁never	-607
▁fo	-608
▁don	-609
▁gr	-610
▁bug	-611
▁tal	-612
ople	-613
▁com	-614
▁hard	-615
▁bu	-616
▁end	-617
▁K	-618
▁by	-619
▁fly	-620
uddenly	-621
▁mag	-622
ort	-623
▁fore	-624
▁turn	-625
▁over	-626
▁even	-627
rm	-628
▁love	-629
▁col	-630
▁safe	-631
▁people	-632
▁after	-633
▁bad	-634
ady	-635
▁high	-636
▁fam	-637
▁ground	-638
ak	-639
▁P	-640
▁door	-641
imb	-642
▁come	-643
bb	-644
▁shiny	-645
▁proud	-646
▁climb	-647
▁opened	-648
uff	-649
▁hurt	-650
▁picked	-651
▁blue	-652
▁loud	-653
pected	-654
Let	-655
▁che	-656
▁give	-657
▁way	-658
▁surprised	-659
▁gl	-660
▁unex	-661
▁unexpected	-662
ild	-663
▁thanked	-664
▁cu	-665
▁book	-666
ummy	-667
▁call	-668
▁color	-669
▁N	-670
hy	-671
▁far	-672
arden	-673
▁garden	-674
▁ever	-675
▁magic	-676
▁Sally	-677
▁par	-678
ough	-679
kay	-680
▁Suddenly	-681
▁im	-682
▁hugged	-683
▁still	-684
▁place	-685
▁unt	-686
ool	-687
▁off	-688
age	-689
▁ma	-690
▁smile	-691
▁Jo	-692
▁walk	-693
▁jumped	-694
▁family	-695
▁until	-696
iz	-697
unny	-698
ture	-699
hes	-700
▁pa	-701
em	-702
▁should	-703
▁qu	-704
▁now	-705
ip	-706
▁kid	-707
ct	-708
▁stick	-709
itty	-710
▁stay	-711
▁strong	-712
▁forest	-713
▁sto	-714
ane	-715
▁dra	-716
aut	-717
▁app	-718
uffy	-719
dy	-720
▁bro	-721
▁boat	-722
▁great	-723
▁After	-724
▁bra	-725
▁squ	-726
▁beaut	-727
No	-728
▁tra	-729
▁next	-730
▁Kitty	-731
▁jo	-732
▁helped	-733
lease	-734
▁hat	-735
les	-736
▁happily	-737
▁picture	-738
▁story	-739
iful	-740
ies	-741
▁beautiful	-742
▁listen	-743
ning	-744
▁showed	-745
▁Fl	-746
▁while	-747
▁called	-748
▁met	-749
▁clos	-750
▁kids	-751
pt	-752
▁open	-753
▁At	-754
▁frog	-755
▁soft	-756
▁mor	-757
▁rem	-758
▁town	-759
▁everyone	-760
Can	-761
ger	-762
▁imp	-763
▁being	-764
▁Fluffy	-765
▁ad	-766
▁stopped	-767
rel	-768
▁rain	-769
▁R	-770
▁angry	-771
by	-772
▁yummy	-773
▁watch	-774
bit	-775
▁doll	-776
▁ca	-777
▁couldn	-778
abbit	-779
ary	-780
vent	-781
▁Let	-782
ree	-783
▁Th	-784
▁truck	-785
▁de	-786
▁wo	-787
ished	-788
▁mouse	-789
▁rabbit	-790
be	-791
dded	-792
▁ate	-793
ress	-794
iss	-795
▁Fin	-796
▁lost	-797
▁warm	-798
▁slide	-799
▁face	-800
▁brave	-801
▁game	-802
▁keep	-803
It	-804
▁fell	-805
fore	-806
▁leave	-807
▁flowers	-808
▁two	-809
▁cook	-810
owl	-811
▁Jack	-812
▁bed	-813
▁cry	-814
▁pus	-815
illy	-816
so	-817
▁Now	-818
ock	-819
▁soon	-820
▁noise	-821
▁green	-822
▁also	-823
ear	-824
▁bunny	-825
▁nodded	-826
▁where	-827
gan	-828
self	-829
oon	-830
▁fix	-831
▁sat	-832
▁having	-833
ired	-834
Hi	-835
▁yell	-836
▁before	-837
▁kept	-838
▁hole	-839
▁pain	-840
▁hear	-841
ble	-842
▁“	-843
day	-844
What	-845
▁store	-846
▁hands	-847
▁catch	-848
Look	-849
▁use	-850
irrel	-851
▁fin	-852
▁sing	-853
az	-854
irst	-855
▁used	-856
▁mommy	-857
▁thr	-858
▁expl	-859
▁funny	-860
▁birds	-861
▁squirrel	-862
▁cra	-863
▁looking	-864
uch	-865
▁ey	-866
▁tired	-867
▁going	-868
▁wait	-869
▁bre	-870
That	-871
▁kit	-872
eet	-873
aybe	-874
leep	-875
▁mean	-876
ange	-877
thing	-878
ught	-879
▁our	-880
led	-881
oy	-882
▁pull	-883
air	-884
▁G	-885
▁dif	-886
▁fav	-887
▁sunny	-888
▁tri	-889
▁pond	-890
ember	-891
▁Can	-892
▁has	-893
chen	-894
▁kitchen	-895
▁wr	-896
▁party	-897
ting	-898
▁ice	-899
▁think	-900
▁flo	-901
orn	-902
▁work	-903
ac	-904
▁head	-905
uit	-906
▁Do	-907
▁bus	-908
We	-909
▁mess	-910
▁worked	-911
▁dr	-912
ng	-913
▁real	-914
zy	-915
▁Wh	-916
ious	-917
hn	-918
irt	-919
▁okay	-920
▁others	-921
▁sound	-922
ft	-923
llow	-924
▁beh	-925
▁moral	-926
▁eyes	-927
Mom	-928
ath	-929
▁sand	-930
▁z	-931
rew	-932
▁talk	-933
▁advent	-934
▁shared	-935
▁remember	-936
▁John	-937
▁favor	-938
joy	-939
ma	-940
▁favorite	-941
Hell	-942
▁ask	-943
Hello	-944
▁right	-945
▁cut	-946
▁curi	-947
▁cold	-948
▁ri	-949
▁hop	-950
▁con	-951
▁import	-952
▁hill	-953
▁mon	-954
lly	-955
imes	-956
▁enjoy	-957
▁making	-958
▁follow	-959
▁curious	-960
▁vo	-961
▁pie	-962
▁bright	-963
▁yard	-964
▁flower	-965
ken	-966
Don	-967
▁sweet	-968
reed	-969
▁move	-970
▁duck	-971
▁dis	-972
▁own	-973
▁rest	-974
▁draw	-975
▁first	-976
▁Timmy	-977
▁important	-978
▁top	-979
▁cla	-980
▁sho	-981
▁This	-982
▁Dad	-983
▁began	-984
▁tall	-985
▁pick	-986
▁block	-987
▁watched	-988
ount	-989
▁sleep	-990
▁bel	-991
▁lady	-992
▁night	-993
▁thing	-994
Wow	-995
ied	-996
▁race	-997
ster	-998
▁tail	-999
▁hot	-1000
fere	-1001
▁hid	-1002
▁hun	-1003
▁differe	-1004
▁agreed	-1005
▁floor	-1006
▁Mr	-1007
▁here	-1008
▁shout	-1009
▁stop	-1010
ect	-1011
▁forg	-1012
▁dark	-1013
▁bag	-1014
▁grass	-1015
ign	-1016
▁worry	-1017
▁song	-1018
▁table	-1019
▁tast	-1020
▁Mommy	-1021
▁Jane	-1022
▁tell	-1023
que	-1024
▁prin	-1025
▁needed	-1026
▁That	-1027
▁leaves	-1028
aring	-1029
▁voice	-1030
▁read	-1031
▁yellow	-1032
aper	-1033
▁farm	-1034
▁ru	-1035
▁dress	-1036
▁trees	-1037
▁hair	-1038
▁swing	-1039
Why	-1040
▁different	-1041
▁del	-1042
▁adventure	-1043
▁walking	-1044
▁turned	-1045
▁surprise	-1046
▁please	-1047
▁hungry	-1048
▁cars	-1049
▁does	-1050
▁colors	-1051
oom	-1052
▁laugh	-1053
bo	-1054
▁Bobo	-1055
▁closer	-1056
ached	-1057
▁pretend	-1058
co	-1059
▁lion	-1060
ient	-1061
ered	-1062
ila	-1063
▁broken	-1064
▁prom	-1065
▁wood	-1066
▁cried	-1067
bye	-1068
▁wet	-1069
▁piece	-1070
▁friendly	-1071
▁full	-1072
▁behind	-1073
▁train	-1074
isy	-1075
▁dance	-1076
▁Lila	-1077
ppy	-1078
▁touch	-1079
▁climbed	-1080
▁another	-1081
▁danc	-1082
af	-1083
▁gone	-1084
where	-1085
▁apple	-1086
▁smell	-1087
bbed	-1088
▁ste	-1089
▁swim	-1090
cked	-1091
▁blocks	-1092
ater	-1093
▁feeling	-1094
▁paper	-1095
▁amaz	-1096
▁ant	-1097
▁All	-1098
sh	-1099
▁per	-1100
▁butter	-1101
▁running	-1102
▁reached	-1103
▁helping	-1104
▁fair	-1105
▁listened	-1106
iced	-1107
▁goodbye	-1108
▁ready	-1109
av	-1110
▁hold	-1111
▁only	-1112
▁light	-1113
art	-1114
▁ac	-1115
ray	-1116
aby	-1117
ike	-1118
▁roll	-1119
▁cream	-1120
▁dri	-1121
▁repl	-1122
key	-1123
▁sit	-1124
▁pushed	-1125
▁fight	-1126
▁slow	-1127
▁plan	-1128
▁close	-1129
▁Everyone	-1130
▁less	-1131
▁done	-1132
▁wag	-1133
▁owl	-1134
▁wall	-1135
▁cool	-1136
▁must	-1137
▁sees	-1138
▁glad	-1139
▁fruit	-1140
▁wise	-1141
ield	-1142
▁tiny	-1143
▁moment	-1144
▁wonder	-1145
▁Just	-1146
▁trying	-1147
▁stuck	-1148
ather	-1149
▁dream	-1150
▁din	-1151
▁through	-1152
ash	-1153
▁pen	-1154
▁wished	-1155
▁fire	-1156
ames	-1157
▁reach	-1158
▁bar	-1159
▁thank	-1160
▁baby	-1161
▁been	-1162
▁To	-1163
▁join	-1164
▁window	-1165
▁explore	-1166
ott	-1167
▁looks	-1168
▁ar	-1169
▁doing	-1170
▁bit	-1171
▁buy	-1172
▁shouted	-1173
▁air	-1174
ey	-1175
▁hide	-1176
▁build	-1177
▁Soon	-1178
▁nest	-1179
▁swam	-1180
▁scary	-1181
▁fall	-1182
▁coming	-1183
▁cloud	-1184
▁bran	-1185
▁land	-1186
▁There	-1187
oney	-1188
▁win	-1189
▁blew	-1190
▁seen	-1191
andy	-1192
▁perf	-1193
ask	-1194
pe	-1195
irty	-1196
▁child	-1197
▁dirty	-1198
▁held	-1199
▁books	-1200
avy	-1201
ph	-1202
▁bigger	-1203
▁left	-1204
▁quick	-1205
▁replied	-1206
▁mat	-1207
ely	-1208
▁underst	-1209
▁might	-1210
▁treat	-1211
ndma	-1212
▁colorful	-1213
▁pulled	-1214
▁grabbed	-1215
▁why	-1216
▁turns	-1217
Okay	-1218
▁Inside	-1219
▁dro	-1220
▁butterf	-1221
ized	-1222
▁remembered	-1223
icy	-1224
▁fill	-1225
▁name	-1226
ucky	-1227
▁cup	-1228
▁chair	-1229
▁cast	-1230
▁broke	-1231
orm	-1232
▁count	-1233
▁sometimes	-1234
aisy	-1235
▁sure	-1236
▁three	-1237
oup	-1238
▁spl	-1239
ation	-1240
▁hopped	-1241
▁pink	-1242
ton	-1243
▁stayed	-1244
▁snow	-1245
▁job	-1246
▁clapped	-1247
Oh	-1248
up	-1249
▁games	-1250
der	-1251
▁bott	-1252
▁gif	-1253
ee	-1254
▁waited	-1255
▁Finally	-1256
▁plant	-1257
▁grow	-1258
▁noticed	-1259
▁lesson	-1260
▁balloon	-1261
ix	-1262
▁anything	-1263
▁pictures	-1264
▁woods	-1265
outh	-1266
▁mouth	-1267
▁paint	-1268
uddy	-1269
▁set	-1270
▁waved	-1271
ower	-1272
▁enjoyed	-1273
room	-1274
▁spot	-1275
▁alone	-1276
▁pot	-1277
▁cont	-1278
▁sea	-1279
▁While	-1280
▁brother	-1281
ds	-1282
▁likes	-1283
▁Buddy	-1284
oun	-1285
amp	-1286
▁tight	-1287
".	-1288
▁year	-1289
▁threw	-1290
▁heavy	-1291
▁white	-1292
▁followed	-1293
▁gent	-1294
▁quickly	-1295
▁Daisy	-1296
▁butterfly	-1297
ins	-1298
▁miss	-1299
▁cookies	-1300
ape	-1301
▁ju	-1302
▁deep	-1303
asure	-1304
▁everywhere	-1305
de	-1306
ze	-1307
▁bee	-1308
▁pat	-1309
ries	-1310
aught	-1311
▁mar	-1312
▁world	-1313
cle	-1314
ister	-1315
▁clot	-1316
▁wrong	-1317
▁clothes	-1318
This	-1319
▁castle	-1320
▁cre	-1321
▁wear	-1322
less	-1323
lc	-1324
▁pu	-1325
ross	-1326
▁mum	-1327
▁button	-1328
▁leaf	-1329
▁Sarah	-1330
iet	-1331
▁nap	-1332
▁Billy	-1333
ner	-1334
▁key	-1335
▁mix	-1336
▁quiet	-1337
eddy	-1338
ere	-1339
arent	-1340
▁Tommy	-1341
olly	-1342
▁makes	-1343
ang	-1344
▁brought	-1345
▁round	-1346
row	-1347
▁parent	-1348
rot	-1349
ued	-1350
ully	-1351
▁wants	-1352
▁well	-1353
▁himself	-1354
os	-1355
▁won	-1356
▁ride	-1357
▁delic	-1358
▁field	-1359
man	-1360
▁danced	-1361
▁arm	-1362
▁break	-1363
▁What	-1364
▁tower	-1365
▁sign	-1366
Do	-1367
fully	-1368
▁hit	-1369
▁snack	-1370
thy	-1371
▁drag	-1372
▁faster	-1373
▁gift	-1374
▁king	-1375
▁talked	-1376
▁forgot	-1377
▁mus	-1378
▁wish	-1379
▁leg	-1380
▁beach	-1381
▁river	-1382
▁sister	-1383
▁Em	-1384
cess	-1385
ence	-1386
▁finished	-1387
▁branch	-1388
▁dry	-1389
▁comp	-1390
leph	-1391
ves	-1392
cy	-1393
itten	-1394
▁sharing	-1395
▁pol	-1396
▁bike	-1397
vel	-1398
▁dinner	-1399
▁dragon	-1400
▁fur	-1401
ards	-1402
▁ra	-1403
▁danger	-1404
▁rel	-1405
▁em	-1406
▁bor	-1407
▁really	-1408
ipp	-1409
▁vis	-1410
▁understand	-1411
▁shin	-1412
ance	-1413
▁black	-1414
▁Z	-1415
ren	-1416
▁bottle	-1417
▁monkey	-1418
▁fox	-1419
▁monster	-1420
▁Jen	-1421
▁pig	-1422
▁smart	-1423
▁poin	-1424
▁rocks	-1425
▁contin	-1426
▁worried	-1427
▁gu	-1428
▁carefully	-1429
▁bowl	-1430
▁someone	-1431
imi	-1432
ctor	-1433
▁fairy	-1434
▁att	-1435
▁today	-1436
ast	-1437
▁filled	-1438
▁pudd	-1439
▁side	-1440
▁eating	-1441
▁el	-1442
▁welc	-1443
ses	-1444
ush	-1445
▁gi	-1446
▁cow	-1447
▁boun	-1448
itting	-1449
▁brown	-1450
▁snake	-1451
ead	-1452
▁whe	-1453
▁Mimi	-1454
▁promised	-1455
▁fan	-1456
gy	-1457
▁pet	-1458
▁silly	-1459
▁happen	-1460
▁everything	-1461
▁yes	-1462
▁res	-1463
▁Maybe	-1464
▁parents	-1465
▁soup	-1466
▁music	-1467
▁visit	-1468
▁mud	-1469
▁letter	-1470
gg	-1471
ated	-1472
▁else	-1473
▁free	-1474
▁pieces	-1475
▁road	-1476
▁children	-1477
stead	-1478
▁bite	-1479
▁Joe	-1480
▁sang	-1481
▁shop	-1482
▁continued	-1483
▁talking	-1484
▁kite	-1485
▁perfect	-1486
zz	-1487
▁egg	-1488
▁flying	-1489
▁Ch	-1490
▁smiles	-1491
▁throw	-1492
▁realized	-1493
▁mail	-1494
.”	-1495
ord	-1496
▁words	-1497
th	-1498
▁amazing	-1499
cket	-1500
▁jar	-1501
▁laughing	-1502
▁wagged	-1503
▁que	-1504
▁orange	-1505
▁sec	-1506
▁moved	-1507
▁sitting	-1508
▁start	-1509
▁enough	-1510
▁closed	-1511
▁Bl	-1512
▁pass	-1513
▁mother	-1514
▁shining	-1515
▁without	-1516
gly	-1517
▁smo	-1518
▁buck	-1519
▁crab	-1520
▁stand	-1521
▁rope	-1522
▁sail	-1523
▁dangerous	-1524
fort	-1525
▁bath	-1526
▁barked	-1527
▁secret	-1528
▁strange	-1529
▁stu	-1530
▁Molly	-1531
▁drink	-1532
▁tasty	-1533
▁ve	-1534
unch	-1535
▁Le	-1536
▁welcome	-1537
ella	-1538
fish	-1539
▁Gra	-1540
▁paw	-1541
used	-1542
iver	-1543
board	-1544
▁crying	-1545
▁heal	-1546
▁past	-1547
▁whist	-1548
ises	-1549
▁lon	-1550
▁candy	-1551
▁living	-1552
▁-	-1553
▁higher	-1554
ches	-1555
Maybe	-1556
▁lonely	-1557
▁pre	-1558
▁owner	-1559
▁shoes	-1560
▁belie	-1561
▁sack	-1562
▁farmer	-1563
Please	-1564
▁morning	-1565
arm	-1566
ato	-1567
▁tom	-1568
chool	-1569
▁swings	-1570
▁delicious	-1571
▁purp	-1572
Tim	-1573
ract	-1574
▁school	-1575
isk	-1576
llie	-1577
▁scream	-1578
▁teac	-1579
ible	-1580
▁finally	-1581
!”	-1582
▁ph	-1583
▁push	-1584
▁stone	-1585
▁rolled	-1586
▁grandma	-1587
lder	-1588
lephant	-1589
▁puddle	-1590
▁Together	-1591
ich	-1592
▁stre	-1593
▁dolls	-1594
me	-1595
▁blank	-1596
▁getting	-1597
ama	-1598
ire	-1599
▁asks	-1600
▁lake	-1601
▁purple	-1602
lla	-1603
asket	-1604
▁mad	-1605
▁trou	-1606
▁shell	-1607
▁years	-1608
ased	-1609
▁caught	-1610
▁blanket	-1611
▁corn	-1612
set	-1613
▁treasure	-1614
But	-1615
▁runs	-1616
▁wore	-1617
▁money	-1618
ub	-1619
▁basket	-1620
▁heart	-1621
▁hoped	-1622
ons	-1623
▁pile	-1624
▁Blue	-1625
▁same	-1626
iskers	-1627
▁singing	-1628
app	-1629
▁herself	-1630
▁Bella	-1631
▁wings	-1632
▁pers	-1633
▁apples	-1634
cks	-1635
▁ben	-1636
▁cute	-1637
br	-1638
▁je	-1639
▁bat	-1640
▁mine	-1641
igh	-1642
▁Leo	-1643
▁plane	-1644
▁gentle	-1645
▁cray	-1646
▁carrot	-1647
▁teacher	-1648
▁Whiskers	-1649
▁elephant	-1650
▁coat	-1651
The	-1652
▁pill	-1653
▁sear	-1654
▁balls	-1655
▁dropped	-1656
▁fit	-1657
▁Mark	-1658
▁days	-1659
▁teddy	-1660
hday	-1661
▁cour	-1662
irthday	-1663
▁doctor	-1664
red	-1665
ined	-1666
▁war	-1667
▁course	-1668
▁Their	-1669
▁forever	-1670
▁joy	-1671
▁woke	-1672
aughty	-1673
▁hiding	-1674
▁naughty	-1675
▁card	-1676
▁seed	-1677
▁min	-1678
▁bring	-1679
▁promise	-1680
ilk	-1681
▁arri	-1682
▁most	-1683
▁teach	-1684
▁cr	-1685
▁band	-1686
▁spin	-1687
▁cookie	-1688
umpy	-1689
▁Thank	-1690
ol	-1691
ator	-1692
▁chee	-1693
▁shap	-1694
▁fence	-1695
▁rob	-1696
▁shr	-1697
▁milk	-1698
▁lunch	-1699
▁thinks	-1700
▁eas	-1701
▁ugly	-1702
▁birthday	-1703
arp	-1704
▁nose	-1705
▁touc	-1706
ose	-1707
▁bush	-1708
▁juice	-1709
▁ob	-1710
▁vill	-1711
▁bow	-1712
▁grew	-1713
▁pop	-1714
▁belong	-1715
sw	-1716
▁answ	-1717
▁shapes	-1718
fused	-1719
itch	-1720
ipped	-1721
▁sharp	-1722
ail	-1723
ass	-1724
▁creat	-1725
▁young	-1726
sy	-1727
umber	-1728
▁bench	-1729
ier	-1730
▁street	-1731
bow	-1732
Tom	-1733
▁part	-1734
▁seem	-1735
▁bone	-1736
erry	-1737
▁wra	-1738
▁able	-1739
▁late	-1740
▁mark	-1741
sc	-1742
ale	-1743
ball	-1744
eter	-1745
▁Momo	-1746
▁believe	-1747
▁Re	-1748
▁rocket	-1749
▁zoom	-1750
▁bucket	-1751
▁Emma	-1752
▁coin	-1753
▁bread	-1754
▁dirt	-1755
▁power	-1756
▁robot	-1757
▁pocket	-1758
▁magical	-1759
ost	-1760
▁inc	-1761
▁shy	-1762
▁kiss	-1763
▁spoon	-1764
▁touched	-1765
▁busy	-1766
▁shook	-1767
▁slowly	-1768
▁twins	-1769
▁kitten	-1770
▁prob	-1771
▁arrived	-1772
▁cheered	-1773
▁feels	-1774
▁shake	-1775
▁lem	-1776
▁craw	-1777
▁neck	-1778
▁seat	-1779
▁carry	-1780
▁trip	-1781
▁storm	-1782
ling	-1783
▁amazed	-1784
ung	-1785
▁few	-1786
▁spo	-1787
eared	-1788
▁village	-1789
OK	-1790
igg	-1791
▁bell	-1792
lem	-1793
idge	-1794
▁cart	-1795
▁taking	-1796
▁coll	-1797
▁fixed	-1798
▁grumpy	-1799
▁patient	-1800
▁stories	-1801
oose	-1802
▁nut	-1803
▁Fred	-1804
▁Mama	-1805
▁problem	-1806
urtle	-1807
▁wheel	-1808
Good	-1809
▁sounds	-1810
▁dist	-1811
▁gray	-1812
▁live	-1813
▁wonderful	-1814
irp	-1815
▁rainbow	-1816
una	-1817
▁Jim	-1818
▁wave	-1819
▁towards	-1820
Lily	-1821
▁sug	-1822
▁huge	-1823
▁rude	-1824
▁spark	-1825
▁driver	-1826
▁hor	-1827
▁ear	-1828
▁cover	-1829
ors	-1830
▁songs	-1831
fortable	-1832
▁whistle	-1833
▁cir	-1834
▁wide	-1835
▁sal	-1836
▁des	-1837
▁rec	-1838
epend	-1839
ens	-1840
unt	-1841
▁string	-1842
▁disapp	-1843
kin	-1844
bble	-1845
elly	-1846
▁suc	-1847
▁Later	-1848
▁treats	-1849
oggy	-1850
pping	-1851
▁meet	-1852
▁path	-1853
iling	-1854
▁Remy	-1855
▁upset	-1856
▁cheese	-1857
▁holding	-1858
alm	-1859
▁moon	-1860
▁turtle	-1861
▁wild	-1862
▁worm	-1863
▁ce	-1864
ourn	-1865
▁lay	-1866
▁hugs	-1867
▁grab	-1868
▁print	-1869
▁fighting	-1870
Of	-1871
▁di	-1872
▁life	-1873
▁giant	-1874
▁bugs	-1875
▁journ	-1876
▁peace	-1877
▁puppy	-1878
umb	-1879
ring	-1880
▁jew	-1881
▁smooth	-1882
adow	-1883
▁ban	-1884
▁joke	-1885
▁note	-1886
▁cloth	-1887
▁jewel	-1888
▁noises	-1889
▁mist	-1890
▁sour	-1891
▁honey	-1892
▁smelly	-1893
Sure	-1894
▁inv	-1895
▁lucky	-1896
ountain	-1897
▁cou	-1898
▁ser	-1899
▁landed	-1900
izzy	-1901
ular	-1902
onest	-1903
pper	-1904
▁net	-1905
▁rad	-1906
▁cave	-1907
▁thin	-1908
aur	-1909
let	-1910
▁Jill	-1911
▁beak	-1912
▁honest	-1913
▁princess	-1914
ife	-1915
not	-1916
▁boss	-1917
▁drive	-1918
▁jelly	-1919
isa	-1920
▁chew	-1921
▁Ollie	-1922
▁banan	-1923
ery	-1924
▁seek	-1925
▁cannot	-1926
▁act	-1927
▁missed	-1928
▁ba	-1929
▁med	-1930
▁stars	-1931
ove	-1932
▁dogs	-1933
ert	-1934
▁Bu	-1935
read	-1936
▁ign	-1937
▁sick	-1938
▁suddenly	-1939
sp	-1940
▁oven	-1941
▁drove	-1942
▁bri	-1943
lower	-1944
▁step	-1945
▁splas	-1946
▁shelf	-1947
iger	-1948
▁exp	-1949
▁snowman	-1950
▁Be	-1951
▁Lisa	-1952
▁wasn	-1953
▁shirt	-1954
▁instead	-1955
Hey	-1956
▁fle	-1957
▁foot	-1958
▁taste	-1959
▁ducks	-1960
▁maybe	-1961
ope	-1962
▁sel	-1963
▁across	-1964
ateful	-1965
▁fancy	-1966
▁sandw	-1967
▁helpful	-1968
▁Ella	-1969
▁Daddy	-1970
▁adventures	-1971
▁bought	-1972
est	-1973
▁wash	-1974
▁organ	-1975
ian	-1976
▁tea	-1977
▁cross	-1978
▁glow	-1979
▁line	-1980
▁comes	-1981
▁grateful	-1982
▁slid	-1983
▁forget	-1984
▁ash	-1985
▁confused	-1986
idy	-1987
▁Cat	-1988
▁spe	-1989
▁With	-1990
▁puzz	-1991
▁change	-1992
▁pillow	-1993
▁healthy	-1994
▁St	-1995
▁dish	-1996
▁pract	-1997
▁zoo	-1998
▁Ducky	-1999
oomy	-2000
oppy	-2001
▁val	-2002
▁stepped	-2003
ult	-2004
erest	-2005
▁last	-2006
▁Chirp	-2007
▁cap	-2008
▁lad	-2009
▁interest	-2010
▁cho	-2011
▁elder	-2012
▁selfish	-2013
ity	-2014
▁easy	-2015
▁whole	-2016
▁elderly	-2017
▁working	-2018
ward	-2019
▁hope	-2020
▁anyone	-2021
▁sticks	-2022
▁watching	-2023
col	-2024
▁calm	-2025
▁messy	-2026
▁Grandma	-2027
amed	-2028
▁pri	-2029
▁save	-2030
▁daddy	-2031
▁takes	-2032
▁chased	-2033
▁forgive	-2034
ize	-2035
▁av	-2036
ever	-2037
▁team	-2038
▁weak	-2039
▁myster	-2040
▁write	-2041
to	-2042
pect	-2043
▁ladder	-2044
oc	-2045
▁tape	-2046
▁wolf	-2047
▁Benny	-2048
▁Mary	-2049
▁legs	-2050
▁lemon	-2051
▁Chirpy	-2052
▁clever	-2053
▁splash	-2054
▁mind	-2055
▁horse	-2056
▁phone	-2057
▁feather	-2058
St	-2059
▁longer	-2060
▁person	-2061
▁plants	-2062
ider	-2063
▁jog	-2064
▁pour	-2065
▁prot	-2066
▁tidy	-2067
▁stret	-2068
ork	-2069
▁emp	-2070
izz	-2071
▁pan	-2072
▁bark	-2073
▁along	-2074
▁empty	-2075
▁later	-2076
▁boot	-2077
▁faces	-2078
▁seemed	-2079
▁cozy	-2080
▁lock	-2081
▁pretended	-2082
bbles	-2083
▁sleepy	-2084
ions	-2085
▁hum	-2086
▁su	-2087
iting	-2088
▁stir	-2089
▁saved	-2090
▁finish	-2091
▁waiting	-2092
llo	-2093
▁mach	-2094
▁swimm	-2095
Come	-2096
pill	-2097
▁ret	-2098
pillar	-2099
?”	-2100
ained	-2101
ually	-2102
▁Come	-2103
▁cheer	-2104
▁chick	-2105
▁spicy	-2106
▁bounce	-2107
▁ent	-2108
▁goat	-2109
▁ring	-2110
▁return	-2111
▁screamed	-2112
▁fake	-2113
▁pool	-2114
den	-2115
▁jumping	-2116
▁such	-2117
▁supp	-2118
▁interesting	-2119
▁tie	-2120
▁clouds	-2121
▁wondered	-2122
ek	-2123
▁pin	-2124
▁fruits	-2125
▁mistake	-2126
unk	-2127
▁drank	-2128
ocked	-2129
▁Luna	-2130
▁lift	-2131
▁spray	-2132
▁eag	-2133
▁cater	-2134
▁plate	-2135
▁though	-2136
▁caterpillar	-2137
▁stra	-2138
▁Bunny	-2139
▁Doggy	-2140
▁bossy	-2141
Be	-2142
box	-2143
dge	-2144
issors	-2145
▁Bobby	-2146
▁onto	-2147
▁gather	-2148
eth	-2149
▁drew	-2150
▁kick	-2151
▁building	-2152
▁Jerry	-2153
▁machine	-2154
▁scissors	-2155
▁swimming	-2156
▁TV	-2157
lebr	-2158
▁rich	-2159
ormal	-2160
▁gives	-2161
▁sheep	-2162
▁celebr	-2163
▁hidden	-2164
▁number	-2165
ont	-2166
▁normal	-2167
▁wing	-2168
▁brush	-2169
▁arms	-2170
▁furry	-2171
▁explor	-2172
▁lovely	-2173
▁cleaned	-2174
▁crayons	-2175
▁Al	-2176
▁glue	-2177
▁front	-2178
▁trouble	-2179
▁My	-2180
aced	-2181
izza	-2182
ment	-2183
▁Tiny	-2184
▁cher	-2185
▁fing	-2186
▁pack	-2187
▁penc	-2188
▁spider	-2189
▁lar	-2190
▁cage	-2191
▁match	-2192
▁sugar	-2193
▁pencil	-2194
▁pointed	-2195
elp	-2196
▁mel	-2197
▁appeared	-2198
urse	-2199
▁puts	-2200
▁prince	-2201
▁smelled	-2202
ned	-2203
oop	-2204
▁sur	-2205
osaur	-2206
▁gate	-2207
▁pray	-2208
▁gently	-2209
yard	-2210
▁matter	-2211
▁search	-2212
▁backyard	-2213
▁dinosaur	-2214
▁fil	-2215
▁drum	-2216
▁fear	-2217
pa	-2218
▁ship	-2219
▁Somet	-2220
▁class	-2221
▁Go	-2222
▁gun	-2223
▁queen	-2224
▁towel	-2225
▁circle	-2226
▁van	-2227
▁couch	-2228
▁smiling	-2229
▁icy	-2230
▁imag	-2231
▁tear	-2232
aughter	-2233
▁nearby	-2234
▁yelled	-2235
▁ashamed	-2236
▁Andy	-2237
▁powerful	-2238
gest	-2239
▁Mum	-2240
▁cri	-2241
▁flag	-2242
▁wand	-2243
▁quest	-2244
▁places	-2245
Help	-2246
▁law	-2247
lev	-2248
▁Br	-2249
▁af	-2250
▁Why	-2251
▁wom	-2252
▁lamp	-2253
▁mir	-2254
icked	-2255
orrow	-2256
▁large	-2257
▁pizza	-2258
▁woman	-2259
▁carried	-2260
▁daughter	-2261
My	-2262
oph	-2263
▁ap	-2264
▁wrap	-2265
▁glass	-2266
▁trust	-2267
▁journey	-2268
ym	-2269
Stop	-2270
▁gas	-2271
▁rub	-2272
▁true	-2273
▁neigh	-2274
ror	-2275
ones	-2276
vous	-2277
▁Rex	-2278
▁bal	-2279
▁tries	-2280
▁neighb	-2281
Now	-2282
ique	-2283
▁emb	-2284
▁jeep	-2285
▁Jenny	-2286
▁ignor	-2287
▁unique	-2288
isp	-2289
ensive	-2290
▁fright	-2291
▁wearing	-2292
▁expensive	-2293
▁If	-2294
▁hur	-2295
▁goes	-2296
▁tomorrow	-2297
itter	-2298
▁Sammy	-2299
▁dizzy	-2300
▁loves	-2301
ced	-2302
▁dig	-2303
▁saf	-2304
▁ants	-2305
▁weird	-2306
ugg	-2307
raid	-2308
▁chase	-2309
▁hello	-2310
▁these	-2311
▁mirror	-2312
▁dancing	-2313
▁reg	-2314
▁Bird	-2315
▁afraid	-2316
▁spring	-2317
▁scar	-2318
▁nothing	-2319
arra	-2320
▁poor	-2321
arrass	-2322
▁frightened	-2323
kn	-2324
mer	-2325
ndpa	-2326
▁ner	-2327
▁cand	-2328
▁lazy	-2329
▁test	-2330
▁eager	-2331
▁whisp	-2332
▁embarrass	-2333
iff	-2334
▁protect	-2335
aw	-2336
▁How	-2337
▁Bear	-2338
▁dest	-2339
▁stood	-2340
▁tomato	-2341
ness	-2342
known	-2343
▁nervous	-2344
▁success	-2345
bby	-2346
▁bridge	-2347
▁puzzle	-2348
▁splashed	-2349
▁pay	-2350
▁wip	-2351
▁wis	-2352
▁bake	-2353
▁clay	-2354
▁unknown	-2355
▁gen	-2356
▁gigg	-2357
▁gold	-2358
▁decor	-2359
▁incred	-2360
▁impress	-2361
▁creative	-2362
ina	-2363
▁feet	-2364
ventually	-2365
era	-2366
▁incredible	-2367
▁sol	-2368
▁lead	-2369
▁sock	-2370
▁tent	-2371
▁sandwich	-2372
▁swan	-2373
▁teeth	-2374
any	-2375
▁useful	-2376
▁clock	-2377
▁respect	-2378
ual	-2379
ute	-2380
▁steak	-2381
▁boring	-2382
berry	-2383
▁soap	-2384
▁disco	-2385
▁straw	-2386
▁square	-2387
lves	-2388
▁fool	-2389
▁pres	-2390
▁mixed	-2391
▁closet	-2392
owed	-2393
▁mask	-2394
▁pump	-2395
▁potato	-2396
▁knocked	-2397
▁peaceful	-2398
airs	-2399
cream	-2400
▁burn	-2401
▁sword	-2402
▁whale	-2403
▁famous	-2404
▁mysterious	-2405
upid	-2406
▁har	-2407
▁bean	-2408
▁gener	-2409
we	-2410
▁3	-2411
▁yog	-2412
rated	-2413
▁sold	-2414
▁shark	-2415
▁answer	-2416
▁U	-2417
▁sco	-2418
arl	-2419
bled	-2420
▁rug	-2421
cient	-2422
▁feed	-2423
▁Please	-2424
▁kicked	-2425
▁polite	-2426
▁wouldn	-2427
com	-2428
erri	-2429
▁jam	-2430
▁disg	-2431
▁Poppy	-2432
▁snacks	-2433
▁ancient	-2434
▁measure	-2435
▁Pe	-2436
▁blow	-2437
▁relie	-2438
▁corner	-2439
ond	-2440
▁esc	-2441
▁noisy	-2442
▁space	-2443
imp	-2444
ote	-2445
reen	-2446
▁scarf	-2447
▁spread	-2448
▁Instead	-2449
▁branches	-2450
▁Don	-2451
ormous	-2452
▁chocol	-2453
▁stupid	-2454
▁painted	-2455
▁Sometimes	-2456
rob	-2457
▁Tr	-2458
▁Will	-2459
▁eggs	-2460
▁shoe	-2461
▁march	-2462
▁rough	-2463
▁paws	-2464
▁wagon	-2465
uce	-2466
▁dug	-2467
▁dead	-2468
▁moms	-2469
▁Emily	-2470
▁crown	-2471
▁frust	-2472
▁study	-2473
▁disgust	-2474
robe	-2475
Mommy	-2476
▁barn	-2477
▁terri	-2478
▁foolish	-2479
▁mis	-2480
▁Some	-2481
▁rare	-2482
▁sell	-2483
▁steal	-2484
▁present	-2485
▁enormous	-2486
▁bald	-2487
▁Jimmy	-2488
▁medic	-2489
▁salad	-2490
▁scare	-2491
▁veget	-2492
▁banana	-2493
▁chocolate	-2494
▁vegetable	-2495
▁disgusting	-2496
▁understood	-2497
ado	-2498
corn	-2499
ighed	-2500
▁clap	-2501
▁hero	-2502
edient	-2503
▁stuff	-2504
▁generous	-2505
▁medicine	-2506
fic	-2507
▁goose	-2508
▁group	-2509
▁bitter	-2510
▁diffic	-2511
pes	-2512
▁roar	-2513
▁thick	-2514
▁breath	-2515
▁perform	-2516
▁difficult	-2517
▁frustrated	-2518
▁tick	-2519
▁Brown	-2520
▁melon	-2521
▁market	-2522
▁shadow	-2523
▁covered	-2524
▁smaller	-2525
▁ord	-2526
uitar	-2527
▁guitar	-2528
▁tasted	-2529
▁obedient	-2530
mb	-2531
roy	-2532
orry	-2533
port	-2534
▁wake	-2535
alk	-2536
▁lab	-2537
▁hang	-2538
▁horn	-2539
▁destroy	-2540
arth	-2541
inal	-2542
▁mot	-2543
▁ref	-2544
asses	-2545
▁toug	-2546
▁bored	-2547
▁asleep	-2548
▁mountain	-2549
aking	-2550
▁which	-2551
▁taught	-2552
▁standing	-2553
land	-2554
usual	-2555
▁harm	-2556
▁Sunny	-2557
▁become	-2558
▁relieved	-2559
▁lif	-2560
▁suit	-2561
▁tough	-2562
▁joined	-2563
▁terrible	-2564
alous	-2565
ungle	-2566
▁mush	-2567
▁sort	-2568
▁moving	-2569
▁pebble	-2570
▁squash	-2571
▁jealous	-2572
▁mushroom	-2573
▁exploring	-2574
Max	-2575
als	-2576
▁adm	-2577
atter	-2578
iginal	-2579
▁knife	-2580
▁jungle	-2581
▁parrot	-2582
▁yourself	-2583
Here	-2584
▁tun	-2585
▁clear	-2586
▁asking	-2587
▁pumpkin	-2588
▁unusual	-2589
▁discover	-2590
▁dull	-2591
▁prize	-2592
▁spoiled	-2593
ulb	-2594
atch	-2595
▁fat	-2596
▁sunf	-2597
▁chicken	-2598
▁'	-2599
▁nuts	-2600
▁tiger	-2601
▁mighty	-2602
▁popcorn	-2603
▁bulb	-2604
▁comb	-2605
▁fine	-2606
▁hears	-2607
▁thoughtful	-2608
mp	-2609
ume	-2610
▁hay	-2611
ident	-2612
▁sque	-2613
▁stri	-2614
▁tool	-2615
▁vase	-2616
▁seeds	-2617
▁twist	-2618
rag	-2619
erce	-2620
▁ind	-2621
▁drop	-2622
▁fierce	-2623
▁original	-2624
▁cop	-2625
▁Many	-2626
▁snee	-2627
▁ending	-2628
▁drawing	-2629
▁island	-2630
▁carrots	-2631
▁thankful	-2632
umsy	-2633
▁cro	-2634
▁muff	-2635
▁cheap	-2636
▁relax	-2637
▁spent	-2638
▁embarrassed	-2639
▁eng	-2640
▁mic	-2641
▁aunt	-2642
▁fold	-2643
selves	-2644
▁Mummy	-2645
▁bloom	-2646
▁clown	-2647
▁knowing	-2648
▁troubled	-2649
Are	-2650
ilt	-2651
oto	-2652
▁temp	-2653
▁frown	-2654
▁record	-2655
▁balance	-2656
▁finding	-2657
▁sunflower	-2658
comfortable	-2659
▁hats	-2660
▁lose	-2661
▁chest	-2662
▁uncomfortable	-2663
ser	-2664
cean	-2665
▁add	-2666
irsty	-2667
▁cone	-2668
▁guess	-2669
▁ocean	-2670
▁shoot	-2671
▁adventur	-2672
▁exciting	-2673
iness	-2674
xible	-2675
▁acorn	-2676
▁stamp	-2677
▁lifted	-2678
dle	-2679
yal	-2680
opard	-2681
▁Miss	-2682
▁seal	-2683
▁trick	-2684
▁clumsy	-2685
▁scatter	-2686
ages	-2687
Sorry	-2688
angle	-2689
▁cush	-2690
▁Today	-2691
▁hairy	-2692
▁pasta	-2693
▁wrote	-2694
▁Little	-2695
▁adventurous	-2696
lace	-2697
▁unl	-2698
Where	-2699
▁body	-2700
▁cats	-2701
▁arrow	-2702
▁crazy	-2703
▁loyal	-2704
▁picks	-2705
▁necklace	-2706
ti	-2707
▁No	-2708
▁ber	-2709
celet	-2710
▁cost	-2711
▁exam	-2712
▁hose	-2713
▁stubb	-2714
▁tells	-2715
▁depend	-2716
▁berries	-2717
▁bracelet	-2718
▁harmless	-2719
▁comfortable	-2720
ho	-2721
▁Tw	-2722
iant	-2723
amond	-2724
apped	-2725
urkey	-2726
xious	-2727
▁Even	-2728
▁behave	-2729
▁deliver	-2730
▁searched	-2731
het	-2732
aghet	-2733
▁Peter	-2734
aghetti	-2735
▁engine	-2736
▁anxious	-2737
▁diamond	-2738
▁organized	-2739
gu	-2740
▁fis	-2741
▁mov	-2742
▁crayon	-2743
▁remind	-2744
ependent	-2745
▁collect	-2746
▁stubborn	-2747
▁scr	-2748
▁swe	-2749
light	-2750
▁turkey	-2751
▁playful	-2752
▁stretch	-2753
▁thirsty	-2754
▁practiced	-2755
Ben	-2756
host	-2757
▁env	-2758
▁jug	-2759
▁pir	-2760
anged	-2761
▁frag	-2762
▁tied	-2763
▁word	-2764
▁envel	-2765
▁gloomy	-2766
▁bubbles	-2767
▁mailbox	-2768
cod	-2769
lph	-2770
ants	-2771
illa	-2772
▁rep	-2773
▁Jake	-2774
▁prun	-2775
codile	-2776
▁crawl	-2777
▁raced	-2778
▁yours	-2779
▁barber	-2780
▁police	-2781
▁bathroom	-2782
▁flexible	-2783
▁spaghetti	-2784
▁independent	-2785
▁pro	-2786
▁sil	-2787
▁deer	-2788
▁crack	-2789
▁escape	-2790
▁liz	-2791
▁pige	-2792
▁ghost	-2793
▁motor	-2794
▁passed	-2795
▁fragile	-2796
aff	-2797
▁belt	-2798
▁deaf	-2799
▁jolly	-2800
▁needs	-2801
▁celebrate	-2802
▁dependable	-2803
io	-2804
▁fig	-2805
▁rat	-2806
shine	-2807
▁bees	-2808
▁dove	-2809
▁roof	-2810
▁chess	-2811
▁dolph	-2812
▁stove	-2813
▁wheat	-2814
▁stat	-2815
cident	-2816
▁attic	-2817
▁brill	-2818
▁raven	-2819
▁leopard	-2820
▁crocodile	-2821
nic	-2822
▁log	-2823
▁map	-2824
▁boys	-2825
▁sung	-2826
▁yarn	-2827
▁flash	-2828
▁press	-2829
▁shows	-2830
▁changed	-2831
▁painting	-2832
▁brilliant	-2833
▁explained	-2834
If	-2835
▁thu	-2836
▁weal	-2837
ground	-2838
▁colour	-2839
▁humble	-2840
▁picnic	-2841
▁er	-2842
▁zip	-2843
▁mill	-2844
▁board	-2845
▁shiver	-2846
▁tricks	-2847
▁crawled	-2848
nel	-2849
▁Sh	-2850
▁using	-2851
▁choose	-2852
▁temple	-2853
▁envelope	-2854
▁ignorant	-2855
iv	-2856
hip	-2857
▁avoc	-2858
▁hoop	-2859
▁send	-2860
lasses	-2861
▁frame	-2862
▁ruined	-2863
▁balloons	-2864
▁cheerful	-2865
▁friendship	-2866
▁sunglasses	-2867
How	-2868
met	-2869
net	-2870
inary	-2871
▁True	-2872
▁knee	-2873
▁raft	-2874
▁built	-2875
▁batter	-2876
▁bottom	-2877
▁folder	-2878
▁pepper	-2879
▁counted	-2880
▁popular	-2881
▁accident	-2882
most	-2883
iddle	-2884
▁rose	-2885
▁pants	-2886
▁waves	-2887
▁compet	-2888
▁helmet	-2889
▁stones	-2890
▁spotted	-2891
▁delicate	-2892
ulu	-2893
work	-2894
▁Rob	-2895
▁jack	-2896
igator	-2897
▁spill	-2898
▁toast	-2899
▁kissed	-2900
▁screen	-2901
▁envious	-2902
▁sunshine	-2903
▁triangle	-2904
fee	-2905
umpet	-2906
▁Your	-2907
erable	-2908
▁stage	-2909
▁lizard	-2910
▁louder	-2911
▁middle	-2912
▁sighed	-2913
▁trumpet	-2914
▁careless	-2915
▁cleaning	-2916
▁miserable	-2917
ying	-2918
▁pow	-2919
ither	-2920
▁harsh	-2921
▁scale	-2922
▁almost	-2923
▁finger	-2924
▁pigeon	-2925
▁statue	-2926
▁tunnel	-2927
▁wander	-2928
▁serious	-2929
▁impressive	-2930
▁vegetables	-2931
seum	-2932
iable	-2933
offee	-2934
▁maze	-2935
▁borrow	-2936
▁sailed	-2937
▁hopping	-2938
▁alligator	-2939
▁nosy	-2940
▁earth	-2941
▁guard	-2942
▁meant	-2943
▁figure	-2944
▁museum	-2945
▁napkin	-2946
▁slipped	-2947
▁bin	-2948
▁post	-2949
▁saus	-2950
▁compl	-2951
▁penny	-2952
▁taken	-2953
▁washed	-2954
▁attract	-2955
▁coo	-2956
▁gar	-2957
▁Lulu	-2958
▁cries	-2959
▁hurts	-2960
▁movie	-2961
▁coffee	-2962
▁jacket	-2963
▁neighbor	-2964
▁reliable	-2965
▁happiness	-2966
▁jellyfish	-2967
ctop	-2968
▁gor	-2969
berries	-2970
▁filthy	-2971
▁knight	-2972
▁ordinary	-2973
▁attractive	-2974
aser	-2975
▁Pet	-2976
▁cam	-2977
▁gem	-2978
▁ones	-2979
▁radio	-2980
▁shore	-2981
▁cushion	-2982
▁wealthy	-2983
omob	-2984
▁cab	-2985
ipper	-2986
utomob	-2987
▁boxes	-2988
▁peach	-2989
▁walks	-2990
▁magnet	-2991
▁muffin	-2992
▁forward	-2993
utomobile	-2994
▁belonged	-2995
live	-2996
▁nod	-2997
▁tag	-2998
▁shade	-2999
▁camera	-3000
▁locked	-3001
▁poured	-3002
▁shells	-3003
▁gorilla	-3004
zzy	-3005
ipop	-3006
pack	-3007
▁loll	-3008
▁boats	-3009
▁cabin	-3010
▁fluffy	-3011
▁dolphin	-3012
▁persist	-3013
▁regular	-3014
▁answered	-3015
▁lollipop	-3016
▁whispered	-3017
▁automobile	-3018
ony	-3019
appy	-3020
▁desk	-3021
▁nods	-3022
▁times	-3023
▁drawer	-3024
▁giving	-3025
Sam	-3026
dom	-3027
▁four	-3028
▁load	-3029
▁mule	-3030
▁week	-3031
▁smoke	-3032
▁create	-3033
▁sailor	-3034
▁competit	-3035
coa	-3036
uth	-3037
cles	-3038
omes	-3039
▁chu	-3040
▁gum	-3041
ctopus	-3042
▁judge	-3043
▁lotion	-3044
▁saying	-3045
▁travel	-3046
Sp	-3047
▁Sn	-3048
inky	-3049
▁ang	-3050
▁twig	-3051
▁sniff	-3052
▁witch	-3053
▁chubby	-3054
▁shrimp	-3055
▁delight	-3056
▁cupboard	-3057
▁stronger	-3058
Me	-3059
ict	-3060
ging	-3061
▁Pete	-3062
▁libr	-3063
▁wool	-3064
▁bubble	-3065
▁garage	-3066
▁houses	-3067
▁invited	-3068
▁returned	-3069
▁successful	-3070
Go	-3071
urb	-3072
essie	-3073
▁lean	-3074
▁mole	-3075
▁Dolly	-3076
▁point	-3077
▁lively	-3078
▁needle	-3079
▁nicely	-3080
▁showing	-3081
▁support	-3082
▁helpless	-3083
Who	-3084
und	-3085
enny	-3086
mbre	-3087
▁yet	-3088
▁alert	-3089
▁dough	-3090
▁grown	-3091
▁helps	-3092
▁moder	-3093
▁umbre	-3094
▁Johnny	-3095
▁fearful	-3096
▁persistent	-3097
ief	-3098
anut	-3099
▁club	-3100
▁gets	-3101
▁scoot	-3102
▁shine	-3103
▁solve	-3104
▁squee	-3105
▁trunk	-3106
▁dreams	-3107
▁fridge	-3108
▁radish	-3109
▁disturb	-3110
▁low	-3111
anger	-3112
▁value	-3113
▁cooked	-3114
▁decide	-3115
▁licked	-3116
▁modern	-3117
▁bedroom	-3118
▁octopus	-3119
▁sleeping	-3120
▁carp	-3121
▁cere	-3122
▁repe	-3123
▁Tweet	-3124
▁loudly	-3125
▁bounced	-3126
▁creature	-3127
oin	-3128
▁ot	-3129
▁sle	-3130
▁acce	-3131
▁base	-3132
▁city	-3133
▁dive	-3134
▁hive	-3135
▁quar	-3136
▁tank	-3137
▁tire	-3138
▁ways	-3139
▁Alice	-3140
▁otter	-3141
▁speak	-3142
▁speed	-3143
▁uncle	-3144
▁wishes	-3145
azz	-3146
ense	-3147
▁gym	-3148
▁hipp	-3149
▁split	-3150
▁truth	-3151
▁candle	-3152
▁eraser	-3153
▁harder	-3154
▁thunder	-3155
▁learning	-3156
▁umbrella	-3157
▁lit	-3158
▁Rose	-3159
▁ador	-3160
▁spend	-3161
▁repair	-3162
▁station	-3163
xy	-3164
cut	-3165
ric	-3166
ilty	-3167
▁mop	-3168
▁mild	-3169
▁chalk	-3170
▁order	-3171
▁cereal	-3172
▁father	-3173
▁guilty	-3174
▁cherries	-3175
ye	-3176
iron	-3177
ulif	-3178
▁jet	-3179
▁Buzz	-3180
▁vine	-3181
▁cocoa	-3182
▁thief	-3183
▁wheels	-3184
▁biggest	-3185
▁jewelry	-3186
▁quarrel	-3187
▁pointing	-3188
▁flashlight	-3189
▁ed	-3190
tern	-3191
▁cact	-3192
▁knot	-3193
▁sink	-3194
▁soar	-3195
atient	-3196
▁grace	-3197
▁homes	-3198
▁caulif	-3199
▁adorable	-3200
▁fountain	-3201
▁impatient	-3202
gen	-3203
asing	-3204
▁Boun	-3205
▁cactus	-3206
▁carpet	-3207
▁powder	-3208
▁library	-3209
▁happening	-3210
Sue	-3211
▁Cl	-3212
▁case	-3213
▁herb	-3214
▁forth	-3215
▁pengu	-3216
▁office	-3217
▁stream	-3218
▁skipped	-3219
▁sweater	-3220
Spot	-3221
irit	-3222
keep	-3223
▁Kim	-3224
▁fork	-3225
▁half	-3226
arming	-3227
▁flute	-3228
▁lying	-3229
▁staff	-3230
▁fisher	-3231
▁shield	-3232
▁grandpa	-3233
rn	-3234
oby	-3235
ory	-3236
ject	-3237
rage	-3238
isted	-3239
▁Teddy	-3240
▁hippo	-3241
▁grapes	-3242
▁handle	-3243
▁charming	-3244
▁whenever	-3245
esday	-3246
▁skin	-3247
▁valu	-3248
assion	-3249
▁angel	-3250
▁tripped	-3251
▁counting	-3252
▁feathers	-3253
▁cauliflower	-3254
ped	-3255
zed	-3256
acht	-3257
▁led	-3258
▁tap	-3259
▁Toby	-3260
▁elev	-3261
▁hunt	-3262
▁knows	-3263
▁marry	-3264
▁slept	-3265
▁design	-3266
▁ticket	-3267
▁avocado	-3268
▁elevator	-3269
▁thinking	-3270
▁strawberry	-3271
▁themselves	-3272
edy	-3273
was	-3274
▁spun	-3275
washer	-3276
▁yacht	-3277
lephone	-3278
▁gifted	-3279
▁wrapped	-3280
▁complain	-3281
▁telephone	-3282
▁dishwasher	-3283
▁eventually	-3284
▁competitive	-3285
ellig	-3286
▁iron	-3287
▁skip	-3288
▁excite	-3289
▁shrink	-3290
▁intellig	-3291
▁flea	-3292
▁quit	-3293
▁tray	-3294
▁Spike	-3295
▁photo	-3296
▁sauce	-3297
▁towers	-3298
▁haircut	-3299
▁gathered	-3300
▁disappoin	-3301
▁compassion	-3302
ates	-3303
rill	-3304
▁anch	-3305
▁poem	-3306
▁pole	-3307
▁wire	-3308
▁Zoomy	-3309
▁deter	-3310
▁nurse	-3311
▁pirate	-3312
▁giggled	-3313
▁decorate	-3314
bul	-3315
opl	-3316
▁aer	-3317
▁ham	-3318
▁toe	-3319
elery	-3320
▁Soph	-3321
▁ears	-3322
▁torn	-3323
▁waff	-3324
▁ambul	-3325
▁shape	-3326
▁People	-3327
▁aeropl	-3328
▁anchor	-3329
▁cricket	-3330
▁question	-3331
▁restless	-3332
▁valuable	-3333
▁ambulance	-3334
▁yaw	-3335
▁numb	-3336
▁vide	-3337
▁hotel	-3338
▁barrel	-3339
▁determ	-3340
▁slides	-3341
▁buttons	-3342
ats	-3343
Give	-3344
ache	-3345
aged	-3346
ision	-3347
▁edge	-3348
▁sett	-3349
▁stranger	-3350
body	-3351
▁Bet	-3352
▁Dan	-3353
ating	-3354
▁bull	-3355
▁meal	-3356
▁shut	-3357
▁wife	-3358
▁sight	-3359
▁tears	-3360
▁trail	-3361
▁celery	-3362
▁unlock	-3363
▁zipper	-3364
▁numbers	-3365
▁pattern	-3366
▁pit	-3367
▁Bill	-3368
▁Pipp	-3369
▁ribb	-3370
▁salt	-3371
▁trap	-3372
▁means	-3373
▁weigh	-3374
▁bushes	-3375
▁laughs	-3376
▁spinning	-3377
▁fisherman	-3378
▁intelligent	-3379
▁disappointed	-3380
▁compassionate	-3381
?".	-3382
del	-3383
old	-3384
▁ple	-3385
▁model	-3386
▁comput	-3387
▁bananas	-3388
▁cardboard	-3389
iew	-3390
head	-3391
ital	-3392
▁ink	-3393
▁mug	-3394
▁hosp	-3395
▁pear	-3396
▁surf	-3397
▁view	-3398
keeper	-3399
▁juicy	-3400
▁newsp	-3401
▁walls	-3402
▁either	-3403
▁soldier	-3404
▁hospital	-3405
ito	-3406
dest	-3407
▁oil	-3408
▁rid	-3409
quito	-3410
▁curt	-3411
▁added	-3412
▁birdc	-3413
▁short	-3414
▁mitten	-3415
nam	-3416
▁pal	-3417
▁pap	-3418
▁pee	-3419
▁nail	-3420
▁prep	-3421
ention	-3422
▁spear	-3423
▁succe	-3424
▁safely	-3425
▁silver	-3426
▁curtain	-3427
▁distant	-3428
▁birdcage	-3429
!".	-3430
▁enc	-3431
▁mos	-3432
ushed	-3433
▁crib	-3434
▁spilled	-3435
▁mosquito	-3436
ron	-3437
uper	-3438
utes	-3439
▁cob	-3440
aving	-3441
uring	-3442
▁bump	-3443
▁pale	-3444
▁rode	-3445
▁task	-3446
▁Birdy	-3447
▁bikes	-3448
▁coins	-3449
▁label	-3450
▁purse	-3451
▁tummy	-3452
▁wiped	-3453
▁Sophie	-3454
▁lights	-3455
▁yogurt	-3456
▁costume	-3457
▁dreamed	-3458
▁painter	-3459
▁questions	-3460
▁playground	-3461
hin	-3462
par	-3463
▁OK	-3464
▁glove	-3465
▁rubber	-3466
▁spirit	-3467
▁minutes	-3468
▁motorcy	-3469
▁shocked	-3470
▁succeed	-3471
▁graceful	-3472
▁aeroplane	-3473
▁pretending	-3474
,”	-3475
ait	-3476
icop	-3477
ocer	-3478
urch	-3479
▁por	-3480
ately	-3481
▁coal	-3482
▁dust	-3483
▁prov	-3484
▁chain	-3485
▁falls	-3486
▁stack	-3487
hinocer	-3488
icopter	-3489
▁collar	-3490
▁itself	-3491
▁palace	-3492
▁sausage	-3493
▁computer	-3494
▁helicopter	-3495
uel	-3496
▁Fo	-3497
stal	-3498
▁pun	-3499
riger	-3500
▁knob	-3501
nament	-3502
▁crystal	-3503
▁scooter	-3504
hinoceros	-3505
rigerator	-3506
▁kindness	-3507
▁ornament	-3508
▁ax	-3509
ucet	-3510
▁Mrs	-3511
▁oak	-3512
▁rod	-3513
▁gear	-3514
▁golf	-3515
▁lime	-3516
▁melt	-3517
▁skirt	-3518
▁steps	-3519
▁faucet	-3520
▁packed	-3521
▁parade	-3522
▁eye	-3523
▁lie	-3524
▁hour	-3525
▁vend	-3526
umbled	-3527
▁Sandy	-3528
▁leash	-3529
▁those	-3530
▁modest	-3531
▁baseball	-3532
▁newspaper	-3533
▁Everywhere	-3534
▁refrigerator	-3535
ofa	-3536
cing	-3537
ilot	-3538
▁lic	-3539
ugged	-3540
▁Snow	-3541
▁hate	-3542
▁matt	-3543
rework	-3544
▁avail	-3545
▁cable	-3546
▁separ	-3547
▁super	-3548
▁makeup	-3549
levision	-3550
▁complet	-3551
▁driving	-3552
▁picking	-3553
▁brothers	-3554
▁firework	-3555
▁rhinoceros	-3556
▁disappeared	-3557
stri	-3558
▁oft	-3559
ampoo	-3560
▁Give	-3561
▁inse	-3562
▁pine	-3563
▁resc	-3564
▁sofa	-3565
▁Pandy	-3566
▁novel	-3567
▁often	-3568
▁onion	-3569
▁serve	-3570
▁video	-3571
▁license	-3572
▁swinging	-3573
▁television	-3574
Well	-3575
aked	-3576
roph	-3577
time	-3578
▁axe	-3579
▁cups	-3580
▁hall	-3581
▁hook	-3582
▁math	-3583
▁medal	-3584
▁spell	-3585
▁church	-3586
▁polish	-3587
▁rubbed	-3588
▁managed	-3589
▁available	-3590
▁determined	-3591
web	-3592
▁bags	-3593
▁alarm	-3594
▁porch	-3595
▁screw	-3596
rophone	-3597
▁Before	-3598
▁cobweb	-3599
▁cooler	-3600
▁meadow	-3601
▁taller	-3602
▁missile	-3603
▁sparkly	-3604
▁drawings	-3605
▁disappear	-3606
Re	-3607
▁ig	-3608
arry	-3609
ckey	-3610
htub	-3611
drobe	-3612
verse	-3613
stairs	-3614
▁diary	-3615
▁growl	-3616
▁metal	-3617
▁hockey	-3618
▁stared	-3619
▁vendor	-3620
▁bandage	-3621
▁bathtub	-3622
▁bookshe	-3623
▁penguin	-3624
▁climbing	-3625
▁wardrobe	-3626
▁basketball	-3627
Bye	-3628
erc	-3629
hus	-3630
loo	-3631
▁Pa	-3632
▁may	-3633
husia	-3634
ready	-3635
▁meat	-3636
▁rice	-3637
▁veil	-3638
▁Buzzy	-3639
▁hurry	-3640
▁igloo	-3641
▁miner	-3642
▁ostri	-3643
▁cherry	-3644
▁gasped	-3645
▁thread	-3646
▁already	-3647
▁battery	-3648
▁rolling	-3649
▁enthusia	-3650
▁bookshelf	-3651
Wait	-3652
omed	-3653
▁itch	-3654
▁rise	-3655
▁root	-3656
▁stud	-3657
▁comet	-3658
▁grape	-3659
▁knock	-3660
▁magaz	-3661
▁swung	-3662
▁hunter	-3663
▁insect	-3664
▁papers	-3665
▁explain	-3666
▁organize	-3667
▁stretched	-3668
▁ok	-3669
affe	-3670
istol	-3671
▁bicy	-3672
▁mummy	-3673
▁lumber	-3674
▁notice	-3675
▁object	-3676
▁mattress	-3677
▁microphone	-3678
▁motorcycle	-3679
Is	-3680
nger	-3681
▁Zip	-3682
▁arg	-3683
▁fog	-3684
▁dess	-3685
▁snap	-3686
ricane	-3687
▁encou	-3688
▁exerc	-3689
▁flame	-3690
▁impro	-3691
▁pilot	-3692
▁pistol	-3693
▁reward	-3694
▁cooking	-3695
▁dessert	-3696
▁dreaming	-3697
▁mustache	-3698
▁realised	-3699
asp	-3700
lcan	-3701
ometer	-3702
▁flour	-3703
▁jokes	-3704
▁sheet	-3705
▁Bessie	-3706
▁fought	-3707
▁unpack	-3708
▁volcan	-3709
▁wallet	-3710
▁winter	-3711
▁suggest	-3712
▁blackboard	-3713
ipe	-3714
iano	-3715
lter	-3716
▁Lee	-3717
aches	-3718
▁blin	-3719
▁Ellie	-3720
▁buckle	-3721
▁pastry	-3722
▁peanut	-3723
rmometer	-3724
▁bicycle	-3725
▁falling	-3726
▁network	-3727
See	-3728
aid	-3729
▁vi	-3730
Ouch	-3731
ophy	-3732
▁bent	-3733
▁camp	-3734
▁rake	-3735
▁sunset	-3736
▁trophy	-3737
▁trucks	-3738
▁calling	-3739
▁shampoo	-3740
▁volcano	-3741
aky	-3742
▁Next	-3743
▁Paul	-3744
▁Tina	-3745
▁beef	-3746
▁neat	-3747
▁stom	-3748
▁weep	-3749
▁drain	-3750
▁piano	-3751
▁attach	-3752
▁ostrich	-3753
▁pressed	-3754
▁practice	-3755
angu	-3756
lies	-3757
ured	-3758
▁mem	-3759
▁bury	-3760
▁poke	-3761
aspoon	-3762
▁apron	-3763
▁hours	-3764
▁human	-3765
▁hammer	-3766
▁stable	-3767
▁trains	-3768
▁hanging	-3769
▁package	-3770
▁shelter	-3771
▁sweetie	-3772
▁teaspoon	-3773
bol	-3774
▁ow	-3775
aroo	-3776
▁hut	-3777
▁ins	-3778
▁rag	-3779
▁sne	-3780
▁sym	-3781
ummer	-3782
▁Elly	-3783
▁kang	-3784
▁crane	-3785
▁patch	-3786
▁track	-3787
▁blouse	-3788
▁against	-3789
▁marched	-3790
▁message	-3791
▁offered	-3792
▁enjoying	-3793
▁kangaroo	-3794
▁squirrels	-3795
▁discovered	-3796
igz	-3797
ube	-3798
▁Ru	-3799
▁ur	-3800
play	-3801
ctory	-3802
igzag	-3803
▁Look	-3804
▁lend	-3805
▁tube	-3806
▁Betty	-3807
▁early	-3808
▁langu	-3809
▁skull	-3810
▁prunes	-3811
▁symbol	-3812
▁display	-3813
▁factory	-3814
▁magazine	-3815
▁passport	-3816
ature	-3817
▁fuel	-3818
▁frogs	-3819
▁holds	-3820
▁nation	-3821
▁peeked	-3822
▁shovel	-3823
▁stairs	-3824
▁fingers	-3825
▁prevent	-3826
▁excitement	-3827
stic	-3828
▁lip	-3829
▁rot	-3830
▁son	-3831
▁ten	-3832
▁cell	-3833
▁mint	-3834
▁once	-3835
▁perm	-3836
▁bathe	-3837
▁check	-3838
▁univer	-3839
▁castles	-3840
▁journal	-3841
▁accidentally	-3842
▁enthusiastic	-3843
▁oy	-3844
kele	-3845
▁Mar	-3846
▁kne	-3847
▁cube	-3848
▁junk	-3849
▁yoga	-3850
▁freez	-3851
▁opens	-3852
keleton	-3853
▁popped	-3854
▁happier	-3855
▁theater	-3856
▁football	-3857
ium	-3858
ffic	-3859
ience	-3860
▁Here	-3861
▁Jazz	-3862
▁cord	-3863
▁five	-3864
▁loop	-3865
▁pipe	-3866
▁hedge	-3867
▁zoomed	-3868
▁allowed	-3869
▁growing	-3870
▁matches	-3871
▁reading	-3872
▁shaking	-3873
▁telling	-3874
▁bathrobe	-3875
▁skeleton	-3876
▁thermometer	-3877
azor	-3878
come	-3879
xygen	-3880
▁disag	-3881
▁slipp	-3882
ination	-3883
▁Pippin	-3884
▁fastest	-3885
▁restore	-3886
▁distance	-3887
▁Eventually	-3888
ney	-3889
▁Su	-3890
ines	-3891
▁Zoom	-3892
iction	-3893
▁pinch	-3894
▁hanger	-3895
ictionary	-3896
▁stumbled	-3897
▁listening	-3898
▁Y	-3899
case	-3900
hero	-3901
▁Big	-3902
▁film	-3903
▁goal	-3904
▁peek	-3905
▁viol	-3906
▁ahead	-3907
▁admire	-3908
▁planet	-3909
▁ribbon	-3910
▁Grandpa	-3911
▁stirred	-3912
▁superhero	-3913
▁dictionary	-3914
fast	-3915
ilet	-3916
▁Ste	-3917
▁gaz	-3918
There	-3919
▁alive	-3920
▁brick	-3921
▁chose	-3922
▁trash	-3923
▁Bounce	-3924
▁helper	-3925
▁toilet	-3926
▁violin	-3927
▁reverse	-3928
▁complete	-3929
▁stickers	-3930
▁surprises	-3931
▁Pap	-3932
▁sub	-3933
arian	-3934
astic	-3935
▁pony	-3936
▁jumps	-3937
▁poppy	-3938
▁stops	-3939
▁strugg	-3940
▁chasing	-3941
cu	-3942
Dad	-3943
▁Un	-3944
apon	-3945
iest	-3946
place	-3947
undry	-3948
▁bill	-3949
▁cudd	-3950
▁rail	-3951
▁doesn	-3952
▁strip	-3953
▁accept	-3954
▁blinked	-3955
▁circles	-3956
▁freezer	-3957
▁laundry	-3958
▁mineral	-3959
▁breakfast	-3960
▁respectful	-3961
ne	-3962
lid	-3963
chan	-3964
ival	-3965
▁beet	-3966
▁fest	-3967
▁vest	-3968
render	-3969
▁grill	-3970
▁laser	-3971
▁tooth	-3972
▁player	-3973
▁summer	-3974
▁switch	-3975
▁leaving	-3976
▁refused	-3977
▁exercise	-3978
▁festival	-3979
▁hurricane	-3980
adium	-3981
liday	-3982
▁leak	-3983
▁doors	-3984
▁lions	-3985
▁waffle	-3986
▁cabinet	-3987
▁holiday	-3988
▁stadium	-3989
▁language	-3990
▁fireplace	-3991
He	-3992
▁men	-3993
htray	-3994
▁twir	-3995
▁berry	-3996
▁rules	-3997
▁spoke	-3998
▁meowed	-3999
▁sneeze	-4000
▁airport	-4001
▁monkeys	-4002
▁pleased	-4003
▁sniffed	-4004
▁searching	-4005
Ow	-4006
Did	-4007
med	-4008
▁Or	-4009
▁tip	-4010
iches	-4011
wards	-4012
▁lawn	-4013
▁oats	-4014
▁slap	-4015
▁razor	-4016
▁favour	-4017
▁lemons	-4018
▁roared	-4019
▁comfort	-4020
▁forgave	-4021
▁tightly	-4022
▁traffic	-4023
▁sandwiches	-4024
ki	-4025
ince	-4026
▁cur	-4027
iggly	-4028
imney	-4029
▁pair	-4030
▁sent	-4031
▁slip	-4032
chanic	-4033
▁agree	-4034
▁boots	-4035
▁finds	-4036
▁obser	-4037
▁anyway	-4038
▁caring	-4039
▁nature	-4040
▁ashtray	-4041
▁chimney	-4042
▁meeting	-4043
▁plastic	-4044
▁sticker	-4045
▁stomach	-4046
▁windows	-4047
▁mechanic	-4048
▁separate	-4049
▁favourite	-4050
Sh	-4051
nna	-4052
res	-4053
▁Co	-4054
ement	-4055
▁cows	-4056
▁ener	-4057
▁fort	-4058
▁Lilly	-4059
▁breat	-4060
▁grabs	-4061
▁mixer	-4062
▁unite	-4063
▁beetle	-4064
▁resist	-4065
▁barking	-4066
▁tomatoes	-4067
▁blueberry	-4068
▁lightning	-4069
hic	-4070
year	-4071
▁Are	-4072
▁Polly	-4073
▁cards	-4074
▁holes	-4075
▁poked	-4076
▁sport	-4077
▁vehic	-4078
▁minute	-4079
▁subway	-4080
▁belongs	-4081
▁giraffe	-4082
▁imagine	-4083
▁letters	-4084
▁classroom	-4085
ayak	-4086
book	-4087
hter	-4088
▁Mag	-4089
amber	-4090
night	-4091
▁Mill	-4092
▁flood	-4093
▁kayak	-4094
▁invite	-4095
▁oyster	-4096
▁remove	-4097
▁laughter	-4098
▁mistakes	-4099
▁notebook	-4100
▁billboard	-4101
te	-4102
▁V	-4103
▁rac	-4104
▁Mike	-4105
▁Papa	-4106
▁names	-4107
▁yield	-4108
▁handed	-4109
▁leaned	-4110
▁oxygen	-4111
▁remain	-4112
▁cartoon	-4113
▁country	-4114
▁improve	-4115
▁puddles	-4116
▁musician	-4117
▁Me	-4118
Anna	-4119
cast	-4120
chair	-4121
▁size	-4122
▁warn	-4123
▁whip	-4124
▁spoil	-4125
▁swamp	-4126
▁sudden	-4127
▁warned	-4128
▁chamber	-4129
▁courage	-4130
▁glowing	-4131
▁proudly	-4132
▁bookcase	-4133
▁problems	-4134
▁sandcast	-4135
igi	-4136
ola	-4137
lend	-4138
vice	-4139
▁beep	-4140
▁lawy	-4141
▁wine	-4142
▁wipe	-4143
eterin	-4144
▁above	-4145
▁pulls	-4146
▁sadly	-4147
▁dancer	-4148
▁pushes	-4149
eterinarian	-4150
▁strawberries	-4151
bra	-4152
They	-4153
ison	-4154
▁Sus	-4155
▁art	-4156
▁fre	-4157
▁Gigi	-4158
▁appl	-4159
▁navy	-4160
▁soil	-4161
▁cliff	-4162
▁pages	-4163
▁panic	-4164
▁trade	-4165
▁copper	-4166
▁rescue	-4167
▁ceiling	-4168
▁frowned	-4169
▁sandbox	-4170
▁slippery	-4171
▁surrender	-4172
▁butterflies	-4173
▁x	-4174
rod	-4175
▁Ow	-4176
ccol	-4177
ccoli	-4178
▁page	-4179
▁rece	-4180
▁Under	-4181
▁incre	-4182
▁kinds	-4183
▁kneel	-4184
▁tease	-4185
emember	-4186
▁Freddy	-4187
▁Wiggly	-4188
▁planes	-4189
▁armchair	-4190
▁carrying	-4191
▁feelings	-4192
▁veterinarian	-4193
aud	-4194
gie	-4195
ebra	-4196
▁ext	-4197
ecause	-4198
▁delay	-4199
▁stair	-4200
▁energy	-4201
▁ignore	-4202
▁introd	-4203
▁repeat	-4204
▁weapon	-4205
▁provide	-4206
▁believed	-4207
▁brightly	-4208
lu	-4209
cer	-4210
edn	-4211
anda	-4212
rosc	-4213
▁lid	-4214
▁ped	-4215
▁Carl	-4216
▁heat	-4217
lendar	-4218
▁tools	-4219
▁waste	-4220
roscope	-4221
▁prayed	-4222
▁regret	-4223
▁shakes	-4224
ednesday	-4225
▁mailman	-4226
▁calendar	-4227
▁somewhere	-4228
▁aw	-4229
imed	-4230
olog	-4231
▁God	-4232
▁meas	-4233
▁Binky	-4234
▁Penny	-4235
▁Where	-4236
▁lives	-4237
▁older	-4238
▁zebra	-4239
▁advice	-4240
▁apolog	-4241
▁nobody	-4242
▁saving	-4243
▁keeping	-4244
▁sounded	-4245
▁reminded	-4246
▁Wednesday	-4247
▁sandcastle	-4248
la	-4249
low	-4250
Your	-4251
▁cane	-4252
elcome	-4253
▁flies	-4254
▁invit	-4255
▁price	-4256
▁raise	-4257
▁choice	-4258
▁freeze	-4259
▁lawyer	-4260
▁mystery	-4261
▁vehicle	-4262
▁anywhere	-4263
eer	-4264
hest	-4265
▁tax	-4266
▁dear	-4267
ations	-4268
▁Susie	-4269
▁inclu	-4270
▁rooms	-4271
▁shone	-4272
▁breaks	-4273
▁chairs	-4274
▁rushed	-4275
▁shouts	-4276
▁softly	-4277
▁starts	-4278
▁crossed	-4279
▁happens	-4280
▁letting	-4281
▁imagined	-4282
▁colourful	-4283
▁suggested	-4284
lex	-4285
ogn	-4286
ores	-4287
▁Bow	-4288
alley	-4289
▁taxi	-4290
aurant	-4291
▁eaten	-4292
▁pitch	-4293
▁Maggie	-4294
▁recogn	-4295
▁smells	-4296
▁applaud	-4297
▁replace	-4298
▁squeeze	-4299
▁chickens	-4300
▁excitedly	-4301
▁restaurant	-4302
oe	-4303
eor	-4304
▁tub	-4305
eorge	-4306
▁Lola	-4307
▁file	-4308
▁gain	-4309
▁trem	-4310
apping	-4311
indeer	-4312
▁Milly	-4313
▁olive	-4314
▁ranch	-4315
▁steam	-4316
▁rained	-4317
▁valley	-4318
▁blowing	-4319
▁content	-4320
▁broccoli	-4321
▁reindeer	-4322
One	-4323
▁equ	-4324
arlie	-4325
▁Dave	-4326
▁Spark	-4327
▁Would	-4328
▁ended	-4329
▁extra	-4330
▁dishes	-4331
▁microscope	-4332
na	-4333
Yay	-4334
ero	-4335
Yuck	-4336
utor	-4337
ected	-4338
▁dare	-4339
▁hung	-4340
▁mass	-4341
▁reve	-4342
▁barks	-4343
▁event	-4344
▁fresh	-4345
▁spade	-4346
▁George	-4347
▁chewed	-4348
▁prepare	-4349
▁sneezed	-4350
▁tornado	-4351
▁bouncing	-4352
▁delighted	-4353
▁blueberries	-4354
vet	-4355
▁Pr	-4356
tain	-4357
▁gro	-4358
▁Hoppy	-4359
▁argue	-4360
▁heads	-4361
▁scold	-4362
▁tutor	-4363
▁chance	-4364
▁hoping	-4365
▁myself	-4366
▁poison	-4367
▁riding	-4368
▁settle	-4369
▁Ro	-4370
▁Spe	-4371
▁vac	-4372
▁Alex	-4373
▁Sque	-4374
▁quiz	-4375
▁Grace	-4376
▁opera	-4377
▁Charlie	-4378
▁shrugged	-4379
Qu	-4380
asis	-4381
cuss	-4382
▁End	-4383
Ready	-4384
▁bend	-4385
▁seas	-4386
▁suff	-4387
ipment	-4388
▁Lizzy	-4389
▁enter	-4390
▁float	-4391
▁skill	-4392
▁baking	-4393
▁burned	-4394
▁chores	-4395
▁giggle	-4396
▁prints	-4397
▁discuss	-4398
▁evening	-4399
▁missing	-4400
▁weather	-4401
▁vacation	-4402
▁equipment	-4403
▁shivering	-4404
nce	-4405
noon	-4406
▁sty	-4407
acked	-4408
ucture	-4409
▁oasis	-4410
▁prune	-4411
▁Millie	-4412
▁fixing	-4413
▁reveal	-4414
▁thanks	-4415
▁mention	-4416
▁pushing	-4417
▁afternoon	-4418
▁structure	-4419
..	-4420
ky	-4421
▁Is	-4422
▁dem	-4423
heart	-4424
inking	-4425
▁James	-4426
▁Olive	-4427
▁grand	-4428
▁hills	-4429
▁socks	-4430
▁spots	-4431
▁bumped	-4432
▁placed	-4433
▁throws	-4434
▁yawned	-4435
▁perfume	-4436
▁puzzles	-4437
▁trusted	-4438
▁writing	-4439
▁throwing	-4440
ana	-4441
sity	-4442
otten	-4443
▁luck	-4444
▁mall	-4445
▁beans	-4446
▁below	-4447
▁coats	-4448
▁parts	-4449
▁tracks	-4450
▁captain	-4451
▁insisted	-4452
",	-4453
Bob	-4454
▁sew	-4455
▁unh	-4456
▁Ruby	-4457
▁claw	-4458
▁sigh	-4459
▁cared	-4460
▁Froggy	-4461
▁expect	-4462
▁pastel	-4463
▁shower	-4464
▁sticky	-4465
▁Squeaky	-4466
▁printed	-4467
▁brighter	-4468
▁shoulder	-4469
▁following	-4470
▁sweetheart	-4471
va	-4472
omm	-4473
▁Who	-4474
ommend	-4475
▁Snowy	-4476
▁panda	-4477
▁greedy	-4478
▁punish	-4479
▁unhappy	-4480
▁teaching	-4481
▁impressed	-4482
▁recommend	-4483
ef	-4484
look	-4485
▁Che	-4486
▁beg	-4487
iform	-4488
▁Have	-4489
uggage	-4490
▁exper	-4491
▁Speedy	-4492
▁deeper	-4493
▁candles	-4494
▁uniform	-4495
lp	-4496
Not	-4497
oof	-4498
Sara	-4499
enry	-4500
▁cub	-4501
▁hen	-4502
▁Kate	-4503
▁tour	-4504
▁score	-4505
▁yucky	-4506
▁easily	-4507
▁weight	-4508
▁luggage	-4509
▁sprayed	-4510
▁clapping	-4511
▁sparkled	-4512
▁splashing	-4513
arnt	-4514
▁sir	-4515
▁Help	-4516
ittens	-4517
▁Mandy	-4518
▁Steve	-4519
▁Tilly	-4520
▁steel	-4521
looking	-4522
▁learnt	-4523
▁racing	-4524
▁checked	-4525
▁follows	-4526
▁ignored	-4527
▁whisper	-4528
▁Whenever	-4529
▁lemonade	-4530
▁destroyed	-4531
ari	-4532
uct	-4533
cond	-4534
hood	-4535
▁fro	-4536
▁spr	-4537
anges	-4538
iture	-4539
riage	-4540
ucked	-4541
▁furn	-4542
▁wigg	-4543
ecting	-4544
▁cheek	-4545
▁chirp	-4546
▁worms	-4547
urprise	-4548
▁buried	-4549
▁permit	-4550
▁second	-4551
▁Mittens	-4552
▁selling	-4553
▁tremble	-4554
▁upstairs	-4555
▁vanished	-4556
▁furniture	-4557
▁scattered	-4558
iki	-4559
ents	-4560
reek	-4561
ween	-4562
▁Finn	-4563
▁jail	-4564
▁reef	-4565
▁Danny	-4566
▁badly	-4567
▁creek	-4568
▁vroom	-4569
Welcome	-4570
▁demand	-4571
▁jogged	-4572
▁streng	-4573
▁between	-4574
▁entered	-4575
▁sorting	-4576
▁whistled	-4577
ides	-4578
▁ing	-4579
▁lec	-4580
▁wre	-4581
▁Coco	-4582
▁paid	-4583
▁rush	-4584
laimed	-4585
▁Henry	-4586
▁claws	-4587
▁hopes	-4588
▁quite	-4589
▁style	-4590
▁thumb	-4591
redient	-4592
▁bricks	-4593
▁marble	-4594
▁points	-4595
▁supply	-4596
▁counter	-4597
▁lecture	-4598
▁massage	-4599
▁exclaimed	-4600
▁ingredient	-4601
▁Sm	-4602
izes	-4603
▁Dog	-4604
▁row	-4605
▁Abby	-4606
▁Kiki	-4607
▁port	-4608
▁grant	-4609
▁seats	-4610
▁bother	-4611
▁climbs	-4612
▁petals	-4613
▁breathe	-4614
▁cutting	-4615
▁hurting	-4616
▁scratch	-4617
▁strength	-4618
▁neighbour	-4619
▁–	-4620
Mia	-4621
ges	-4622
Lucy	-4623
▁tug	-4624
▁menu	-4625
▁Clara	-4626
▁allow	-4627
▁bears	-4628
▁cakes	-4629
Surprise	-4630
▁putting	-4631
▁raining	-4632
▁marriage	-4633
▁invitation	-4634
▁shopkeeper	-4635
And	-4636
These	-4637
▁Nana	-4638
▁Zara	-4639
▁agre	-4640
▁furt	-4641
▁heel	-4642
▁pigs	-4643
▁wags	-4644
resses	-4645
▁snail	-4646
▁works	-4647
▁waving	-4648
▁admired	-4649
▁printer	-4650
▁explored	-4651
▁starting	-4652
▁forgotten	-4653
▁ingredients	-4654
▁Pat	-4655
▁See	-4656
▁hon	-4657
▁soc	-4658
▁Baby	-4659
▁Finny	-4660
▁apart	-4661
▁balan	-4662
▁daisy	-4663
▁drops	-4664
▁scoop	-4665
▁wreck	-4666
ecially	-4667
▁fallen	-4668
▁plates	-4669
▁shined	-4670
▁eagerly	-4671
▁further	-4672
▁jogging	-4673
▁observe	-4674
▁sailing	-4675
▁washing	-4676
▁introduce	-4677
▁difference	-4678
▁Bop	-4679
▁Kat	-4680
▁Pip	-4681
▁pup	-4682
right	-4683
thank	-4684
▁tuna	-4685
atched	-4686
▁acted	-4687
▁blood	-4688
Because	-4689
▁during	-4690
▁soccer	-4691
▁strike	-4692
▁Sharing	-4693
▁floated	-4694
specially	-4695
icer	-4696
reat	-4697
▁Out	-4698
▁rul	-4699
▁Suzy	-4700
▁buzz	-4701
▁tong	-4702
▁yawn	-4703
▁moves	-4704
▁plays	-4705
▁worth	-4706
eration	-4707
▁beauty	-4708
▁folded	-4709
▁horses	-4710
▁flapped	-4711
▁highest	-4712
▁planted	-4713
▁studied	-4714
▁warning	-4715
▁Remember	-4716
▁increase	-4717
▁wandered	-4718
▁especially	-4719
Mr	-4720
▁Tu	-4721
▁oh	-4722
▁Owl	-4723
quake	-4724
quest	-4725
reeze	-4726
▁conf	-4727
▁urge	-4728
▁famil	-4729
▁given	-4730
▁Bubbles	-4731
▁Tuesday	-4732
▁examine	-4733
▁kingdom	-4734
▁reaches	-4735
▁watered	-4736
▁presents	-4737
▁shouting	-4738
▁Everything	-4739
bor	-4740
men	-4741
medi	-4742
▁bak	-4743
raged	-4744
▁soak	-4745
▁gifts	-4746
▁lands	-4747
▁sorts	-4748
unately	-4749
▁brings	-4750
▁harbor	-4751
▁solved	-4752
▁dressed	-4753
▁quietly	-4754
▁scolded	-4755
▁slapped	-4756
▁snapped	-4757
▁twisted	-4758
mediately	-4759
▁elephants	-4760
▁earthquake	-4761
▁university	-4762
ippy	-4763
▁Ava	-4764
▁Ros	-4765
▁pur	-4766
▁hadn	-4767
▁inst	-4768
▁sits	-4769
▁zero	-4770
omeday	-4771
▁Harry	-4772
▁crash	-4773
▁snugg	-4774
▁curled	-4775
▁hearts	-4776
▁tongue	-4777
▁zigzag	-4778
▁request	-4779
▁experience	-4780
sed	-4781
pted	-4782
▁kis	-4783
ester	-4784
▁Hope	-4785
▁Jess	-4786
▁Toto	-4787
▁comf	-4788
▁west	-4789
▁image	-4790
▁trave	-4791
▁kisses	-4792
▁memory	-4793
▁mister	-4794
▁wisdom	-4795
esterday	-4796
▁oranges	-4797
▁planned	-4798
▁sliding	-4799
▁operation	-4800
do	-4801
rise	-4802
▁Bee	-4803
▁Good	-4804
▁tide	-4805
ipping	-4806
▁Wally	-4807
▁licks	-4808
▁prett	-4809
▁ruler	-4810
▁sizes	-4811
▁worse	-4812
▁bouncy	-4813
▁fields	-4814
▁paused	-4815
▁skills	-4816
▁someday	-4817
▁stuffed	-4818
▁attached	-4819
▁squeezed	-4820
To	-4821
mm	-4822
▁Ho	-4823
▁Mo	-4824
Woof	-4825
aded	-4826
▁Sky	-4827
ories	-4828
▁Rock	-4829
▁cape	-4830
▁mama	-4831
▁shot	-4832
▁Katie	-4833
▁Robby	-4834
▁ideas	-4835
▁since	-4836
▁appear	-4837
▁manage	-4838
▁result	-4839
▁sorted	-4840
▁suffer	-4841
▁colours	-4842
▁pulling	-4843
▁release	-4844
▁accepted	-4845
▁catching	-4846
▁encourage	-4847
▁imagination	-4848
Will	-4849
▁mice	-4850
▁news	-4851
▁bones	-4852
▁dried	-4853
▁pearl	-4854
▁peaches	-4855
▁tonight	-4856
▁twirled	-4857
▁blankets	-4858
▁measured	-4859
▁welcomed	-4860
▁attention	-4861
▁zookeeper	-4862
▁immediately	-4863
indy	-4864
▁Mel	-4865
▁Ray	-4866
ction	-4867
house	-4868
sters	-4869
▁Joey	-4870
▁calls	-4871
▁spike	-4872
▁Zigzag	-4873
▁melted	-4874
▁season	-4875
▁tucked	-4876
▁closely	-4877
▁growled	-4878
▁leather	-4879
▁peanuts	-4880
▁rabbits	-4881
▁settled	-4882
▁sunrise	-4883
▁wagging	-4884
▁whistling	-4885
▁celebrated	-4886
ips	-4887
ups	-4888
▁si	-4889
cery	-4890
etch	-4891
▁Liz	-4892
▁ble	-4893
▁glo	-4894
▁ours	-4895
▁Annie	-4896
▁quack	-4897
▁tastes	-4898
▁dresses	-4899
▁fireman	-4900
▁grocery	-4901
▁married	-4902
▁receive	-4903
▁winning	-4904
▁remained	-4905
▁stealing	-4906
▁disagreed	-4907
▁recognize	-4908
▁downstairs	-4909
Ha	-4910
Next	-4911
ored	-4912
walk	-4913
▁Fox	-4914
▁Red	-4915
▁inf	-4916
ising	-4917
unday	-4918
▁Each	-4919
▁Josh	-4920
▁Slow	-4921
▁bang	-4922
▁cras	-4923
▁emer	-4924
▁lips	-4925
▁palm	-4926
▁shed	-4927
▁stro	-4928
▁toes	-4929
▁tore	-4930
▁Chick	-4931
▁Frank	-4932
▁Maria	-4933
▁tremb	-4934
▁Sunday	-4935
▁easier	-4936
▁gloves	-4937
▁safari	-4938
▁soaked	-4939
▁wooden	-4940
▁zipped	-4941
▁memories	-4942
▁punished	-4943
▁sidewalk	-4944
▁snuggled	-4945
▁stirring	-4946
▁surround	-4947
fortunately	-4948
▁understanding	-4949
ddy	-4950
thm	-4951
ding	-4952
▁May	-4953
▁Sun	-4954
▁isn	-4955
hythm	-4956
icing	-4957
▁hits	-4958
▁rang	-4959
▁First	-4960
▁baked	-4961
▁seeing	-4962
▁backpack	-4963
▁breaking	-4964
▁potatoes	-4965
▁snowball	-4966
▁straight	-4967
▁universe	-4968
▁creatures	-4969
▁collection	-4970
▁encouraged	-4971
Ok	-4972
rr	-4973
ien	-4974
ops	-4975
▁Qu	-4976
▁Ted	-4977
▁Both	-4978
▁flap	-4979
▁grin	-4980
▁lung	-4981
▁Smith	-4982
▁gazed	-4983
▁offer	-4984
▁pedal	-4985
▁acorns	-4986
▁raised	-4987
▁pirates	-4988
▁ringing	-4989
▁floating	-4990
▁trembling	-4991
eep	-4992
aped	-4993
bles	-4994
sing	-4995
▁bab	-4996
▁pad	-4997
▁wob	-4998
isdom	-4999
▁King	-5000
▁brus	-5001
▁flat	-5002
▁hers	-5003
▁spit	-5004
▁bites	-5005
▁firef	-5006
▁kites	-5007
▁waits	-5008
▁babies	-5009
▁landsc	-5010
▁alright	-5011
▁include	-5012
▁kicking	-5013
▁muscles	-5014
▁pebbles	-5015
▁relaxed	-5016
▁shouldn	-5017
▁crawling	-5018
▁shopping	-5019
▁unlocked	-5020
▁fireworks	-5021
Amy	-5022
▁Sad	-5023
▁web	-5024
Would	-5025
icorn	-5026
orted	-5027
▁Tony	-5028
▁simp	-5029
igging	-5030
▁Cindy	-5031
▁Rosie	-5032
▁appro	-5033
▁bleed	-5034
▁brain	-5035
▁dared	-5036
▁Bouncy	-5037
▁Follow	-5038
▁unicorn	-5039
▁watches	-5040
▁families	-5041
▁Unfortunately	-5042
ety	-5043
ids	-5044
kins	-5045
ther	-5046
▁Not	-5047
allen	-5048
▁beds	-5049
▁exit	-5050
▁opin	-5051
▁Lucky	-5052
▁These	-5053
▁girls	-5054
▁instr	-5055
▁keeps	-5056
▁kitty	-5057
▁sneak	-5058
▁Wisdom	-5059
▁breeze	-5060
▁mouths	-5061
▁petted	-5062
▁safety	-5063
▁challen	-5064
▁chewing	-5065
▁digging	-5066
▁kneeled	-5067
▁matched	-5068
▁resting	-5069
▁shadows	-5070
▁tallest	-5071
▁visited	-5072
▁drinking	-5073
▁Something	-5074
int	-5075
ler	-5076
rec	-5077
sit	-5078
elle	-5079
ishy	-5080
umes	-5081
▁Car	-5082
▁vel	-5083
▁vet	-5084
▁laid	-5085
▁none	-5086
ishing	-5087
▁lined	-5088
▁muddy	-5089
▁piles	-5090
▁served	-5091
▁stitch	-5092
▁velvet	-5093
▁ordered	-5094
▁silence	-5095
▁weeping	-5096
▁weighed	-5097
▁cartoons	-5098
▁disagree	-5099
▁playtime	-5100
▁studying	-5101
▁amazement	-5102
▁underground	-5103
!'	-5104
!",	-5105
avid	-5106
chie	-5107
oral	-5108
reci	-5109
▁bye	-5110
▁Bree	-5111
▁gust	-5112
▁lick	-5113
▁writ	-5114
▁Pinky	-5115
▁roads	-5116
▁roots	-5117
▁signs	-5118
▁twink	-5119
▁crunch	-5120
▁mixing	-5121
▁spoons	-5122
▁vanish	-5123
▁winner	-5124
▁appreci	-5125
▁napping	-5126
▁nowhere	-5127
▁setting	-5128
▁costumes	-5129
▁repeated	-5130
▁landscape	-5131
▁treasures	-5132
.'	-5133
rs	-5134
Yum	-5135
aved	-5136
coon	-5137
oved	-5138
▁sip	-5139
▁six	-5140
izing	-5141
▁jazz	-5142
▁pets	-5143
▁David	-5144
▁urged	-5145
▁Peanut	-5146
▁rhythm	-5147
▁strang	-5148
▁voices	-5149
▁emergen	-5150
▁pinched	-5151
▁sisters	-5152
▁happiest	-5153
▁sausages	-5154
▁decorated	-5155
▁perfectly	-5156
▁importance	-5157
▁decorations	-5158
oys	-5159
▁Hop	-5160
▁Spl	-5161
▁Zoe	-5162
▁pra	-5163
Kitty	-5164
Mummy	-5165
shion	-5166
umble	-5167
▁dire	-5168
▁lets	-5169
▁lily	-5170
▁wink	-5171
▁draws	-5172
▁waist	-5173
▁infant	-5174
▁fashion	-5175
▁guessed	-5176
▁knights	-5177
▁clearing	-5178
▁patterns	-5179
▁prepared	-5180
▁agreement	-5181
▁mentioned	-5182
ena	-5183
▁An	-5184
iers	-5185
hello	-5186
isten	-5187
oming	-5188
▁noon	-5189
▁phot	-5190
▁scru	-5191
ssible	-5192
▁admir	-5193
▁beard	-5194
▁eagle	-5195
▁known	-5196
▁marks	-5197
▁poems	-5198
▁sprink	-5199
▁thrill	-5200
▁crunchy	-5201
▁escaped	-5202
▁hurried	-5203
▁moments	-5204
▁turning	-5205
▁waffles	-5206
▁ourselves	-5207
▁strangers	-5208
zen	-5209
▁Bo	-5210
ship	-5211
▁Did	-5212
Happy	-5213
antly	-5214
ities	-5215
▁brid	-5216
▁gran	-5217
▁logs	-5218
▁peel	-5219
▁ruin	-5220
Little	-5221
please	-5222
▁Watch	-5223
▁bowed	-5224
▁fetch	-5225
▁forgi	-5226
▁goals	-5227
▁limes	-5228
▁Friend	-5229
▁Jessie	-5230
▁Splash	-5231
▁frozen	-5232
▁ripped	-5233
▁behaved	-5234
▁bravely	-5235
▁crashed	-5236
▁cuddled	-5237
▁grinned	-5238
▁pillows	-5239
▁expected	-5240
▁soldiers	-5241
▁spending	-5242
▁disturbed	-5243
▁apologized	-5244
ded	-5245
Mama	-5246
acob	-5247
eath	-5248
ived	-5249
tory	-5250
vest	-5251
▁Bug	-5252
▁guy	-5253
ishes	-5254
▁Cudd	-5255
▁Dare	-5256
▁dads	-5257
▁Jacob	-5258
▁Moral	-5259
▁Rocky	-5260
▁knelt	-5261
▁lines	-5262
▁gained	-5263
▁photos	-5264
▁Cuddles	-5265
▁beneath	-5266
▁fishing	-5267
▁history	-5268
▁matching	-5269
▁struggle	-5270
▁emergency	-5271
▁collecting	-5272
ud	-5273
choo	-5274
ctly	-5275
omas	-5276
▁Its	-5277
▁Mon	-5278
Sally	-5279
Watch	-5280
▁Izzy	-5281
▁beat	-5282
▁item	-5283
▁meow	-5284
▁pies	-5285
▁resp	-5286
▁sore	-5287
▁text	-5288
Thanks	-5289
▁Catty	-5290
▁Happy	-5291
▁Henny	-5292
▁hesit	-5293
▁slice	-5294
Goodbye	-5295
▁Stitch	-5296
▁begged	-5297
▁drinks	-5298
▁rested	-5299
▁soared	-5300
▁warmth	-5301
▁answers	-5302
▁bridges	-5303
▁burning	-5304
▁dragons	-5305
▁texture	-5306
▁trapped	-5307
▁skipping	-5308
▁buildings	-5309
▁challenge	-5310
▁collected	-5311
▁wondering	-5312
ales	-5313
▁Beh	-5314
▁Lou	-5315
▁ago	-5316
▁lied	-5317
▁crabs	-5318
▁Thomas	-5319
▁kindly	-5320
▁simple	-5321
▁stamps	-5322
▁threat	-5323
▁wiggle	-5324
▁opinion	-5325
▁praised	-5326
▁scaring	-5327
▁screams	-5328
▁scratched	-5329
▁approached	-5330
▁‘	-5331
bug	-5332
emb	-5333
ica	-5334
iti	-5335
ury	-5336
▁Am	-5337
▁Lu	-5338
akes	-5339
▁Jul	-5340
utter	-5341
▁Stop	-5342
▁boom	-5343
▁east	-5344
▁blink	-5345
▁comfy	-5346
▁twigs	-5347
▁Behind	-5348
▁Sparky	-5349
▁golden	-5350
▁olives	-5351
▁theirs	-5352
▁brushed	-5353
▁ladybug	-5354
▁teasing	-5355
▁wonders	-5356
▁scrubbed	-5357
▁gathering	-5358
▁sparkling	-5359
▁neighborhood	-5360
ino	-5361
rab	-5362
▁Ab	-5363
When	-5364
lier	-5365
mare	-5366
zing	-5367
▁ann	-5368
▁eff	-5369
▁fed	-5370
▁tim	-5371
bbing	-5372
▁Lena	-5373
▁Titi	-5374
▁copy	-5375
▁gaze	-5376
▁slim	-5377
Really	-5378
embers	-5379
vestig	-5380
▁Being	-5381
▁broom	-5382
▁herbs	-5383
▁ropes	-5384
▁sting	-5385
▁beamed	-5386
▁joking	-5387
▁Missile	-5388
▁Someone	-5389
▁granted	-5390
▁muffins	-5391
▁strings	-5392
▁teaches	-5393
▁investig	-5394
▁nightmare	-5395
▁remembers	-5396
▁shoulders	-5397
Jo	-5398
Mmm	-5399
ogo	-5400
▁By	-5401
Bird	-5402
ados	-5403
osed	-5404
uest	-5405
urry	-5406
▁Boo	-5407
▁awe	-5408
▁dot	-5409
▁Dodo	-5410
▁Tuna	-5411
▁eats	-5412
▁grey	-5413
▁refu	-5414
▁twin	-5415
▁Marie	-5416
▁activ	-5417
▁airpl	-5418
▁alien	-5419
▁cubes	-5420
▁doggy	-5421
▁loose	-5422
▁shock	-5423
▁slimy	-5424
▁swims	-5425
▁trips	-5426
▁Always	-5427
▁Chicky	-5428
▁Slowly	-5429
▁argued	-5430
▁glowed	-5431
▁hardly	-5432
▁headed	-5433
▁hissed	-5434
▁pedals	-5435
▁writes	-5436
▁brushes	-5437
▁created	-5438
▁parties	-5439
▁pencils	-5440
▁roaring	-5441
▁sneaked	-5442
▁sparkle	-5443
▁zooming	-5444
▁avocados	-5445
▁marching	-5446
▁received	-5447
▁recorded	-5448
▁thrilled	-5449
▁investigate	-5450
Fl	-5451
ah	-5452
ux	-5453
She	-5454
iam	-5455
▁Kay	-5456
▁Squ	-5457
▁Vel	-5458
▁Yes	-5459
▁wed	-5460
allow	-5461
ppers	-5462
uxury	-5463
▁Dino	-5464
▁Gina	-5465
▁Gogo	-5466
▁Luke	-5467
▁Prin	-5468
▁Sure	-5469
▁area	-5470
▁crow	-5471
▁fara	-5472
▁inch	-5473
▁pots	-5474
mother	-5475
▁Rover	-5476
▁guest	-5477
▁nicer	-5478
▁steep	-5479
▁wears	-5480
▁youth	-5481
▁Velvet	-5482
▁effort	-5483
▁healed	-5484
▁jewels	-5485
▁keeper	-5486
▁leader	-5487
▁loving	-5488
▁master	-5489
▁remote	-5490
▁tugged	-5491
▁chirped	-5492
▁decides	-5493
▁faraway	-5494
▁marbles	-5495
▁melting	-5496
▁removed	-5497
▁cheering	-5498
▁radishes	-5499
▁sticking	-5500
▁students	-5501
▁supposed	-5502
▁sweeties	-5503
▁traveled	-5504
▁balancing	-5505
▁mountains	-5506
▁screaming	-5507
▁stretching	-5508
▁destination	-5509
”.	-5510
Shh	-5511
hee	-5512
loe	-5513
▁3-	-5514
Timmy	-5515
osity	-5516
▁Moon	-5517
▁prop	-5518
▁situ	-5519
▁sled	-5520
Fluffy	-5521
ission	-5522
▁Barry	-5523
▁Julie	-5524
▁claps	-5525
▁cough	-5526
▁hated	-5527
▁owned	-5528
▁Robert	-5529
▁snakes	-5530
▁buckets	-5531
▁hitting	-5532
▁praying	-5533
▁realize	-5534
▁stripes	-5535
▁tricked	-5536
▁yelling	-5537
▁monsters	-5538
▁polished	-5539
▁revealed	-5540
▁delivered	-5541
Al	-5542
▁1	-5543
avi	-5544
aws	-5545
boo	-5546
jam	-5547
sses	-5548
affes	-5549
agull	-5550
▁Ally	-5551
▁crew	-5552
▁cuts	-5553
▁mane	-5554
▁Chloe	-5555
▁Quick	-5556
▁deser	-5557
▁faced	-5558
▁fears	-5559
▁frost	-5560
▁safer	-5561
▁seems	-5562
▁Spring	-5563
▁bakery	-5564
▁beside	-5565
▁luxury	-5566
▁parked	-5567
▁talent	-5568
▁tickle	-5569
▁earlier	-5570
▁opening	-5571
▁seagull	-5572
▁secrets	-5573
▁staying	-5574
▁Everyday	-5575
▁continue	-5576
▁giraffes	-5577
▁provided	-5578
▁wherever	-5579
▁measuring	-5580
▁permission	-5581
▁complaining	-5582
'.	-5583
ha	-5584
cus	-5585
ifi	-5586
ues	-5587
John	-5588
Meow	-5589
isty	-5590
mies	-5591
usty	-5592
▁For	-5593
▁Joy	-5594
Daddy	-5595
esome	-5596
▁Duck	-5597
▁Nick	-5598
▁bare	-5599
▁pans	-5600
▁rele	-5601
▁rule	-5602
anging	-5603
▁Earth	-5604
▁Lenny	-5605
▁Pippa	-5606
▁dusty	-5607
▁horns	-5608
▁pupil	-5609
▁sweat	-5610
▁tails	-5611
▁windy	-5612
▁acting	-5613
▁darker	-5614
▁heroes	-5615
▁paints	-5616
▁proper	-5617
▁refuse	-5618
▁However	-5619
▁actions	-5620
▁awesome	-5621
▁candies	-5622
▁feeding	-5623
▁magnets	-5624
▁actually	-5625
▁admiring	-5626
▁bleeding	-5627
▁shooting	-5628
▁touching	-5629
▁discovery	-5630
▁struggled	-5631
ls	-5632
iar	-5633
ora	-5634
pie	-5635
▁Dr	-5636
Just	-5637
Stay	-5638
anta	-5639
dies	-5640
ners	-5641
ouch	-5642
quid	-5643
▁Bri	-5644
▁Bye	-5645
▁Jam	-5646
▁obe	-5647
▁wiz	-5648
aster	-5649
▁Beep	-5650
▁Kids	-5651
▁Lina	-5652
▁Luck	-5653
▁Tara	-5654
▁died	-5655
▁toss	-5656
▁tune	-5657
▁vict	-5658
▁Hippy	-5659
▁Santa	-5660
▁Water	-5661
▁awake	-5662
▁flags	-5663
▁foods	-5664
▁shrug	-5665
▁timer	-5666
▁weeks	-5667
▁During	-5668
▁liquid	-5669
▁sneaky	-5670
▁twisty	-5671
▁valued	-5672
▁wasted	-5673
▁Friends	-5674
▁Jessica	-5675
▁Luckily	-5676
▁bedtime	-5677
▁company	-5678
▁contain	-5679
▁contest	-5680
▁glasses	-5681
▁helmets	-5682
▁onwards	-5683
▁wanting	-5684
▁wedding	-5685
▁creation	-5686
▁restored	-5687
▁spraying	-5688
▁teamwork	-5689
▁Yesterday	-5690
▁dinosaurs	-5691
▁neighbors	-5692
▁patiently	-5693
▁prettiest	-5694
▁spaceship	-5695
▁struggling	-5696
▁surrounded	-5697
▁neighbourhood	-5698
Ew	-5699
go	-5700
▁X	-5701
Boo	-5702
ads	-5703
lee	-5704
Time	-5705
band	-5706
enty	-5707
▁Meg	-5708
ashed	-5709
compl	-5710
▁Fifi	-5711
▁Frog	-5712
▁Keep	-5713
▁Like	-5714
▁chef	-5715
▁obey	-5716
screen	-5717
▁Brian	-5718
▁Jamie	-5719
▁Jenna	-5720
▁Jolly	-5721
▁achie	-5722
▁crept	-5723
▁pride	-5724
▁sings	-5725
▁siren	-5726
▁stare	-5727
▁Hopper	-5728
▁Rabbit	-5729
▁insist	-5730
▁loaded	-5731
▁paying	-5732
▁poking	-5733
▁sights	-5734
▁worker	-5735
▁bloomed	-5736
▁catches	-5737
▁glitter	-5738
▁project	-5739
▁quacked	-5740
▁frosting	-5741
▁scooters	-5742
▁paintings	-5743
▁polishing	-5744
▁succeeded	-5745
▁appreciate	-5746
▁recognized	-5747
Wh	-5748
ays	-5749
nie	-5750
ulp	-5751
▁Gr	-5752
▁hi	-5753
..."	-5754
ofia	-5755
scin	-5756
▁Jan	-5757
▁Moo	-5758
▁mes	-5759
uffin	-5760
▁Aunt	-5761
▁Foxy	-5762
▁comm	-5763
▁flav	-5764
▁guys	-5765
▁honk	-5766
▁prec	-5767
▁thud	-5768
▁Blink	-5769
▁Sofia	-5770
▁Uncle	-5771
▁adult	-5772
▁beads	-5773
▁blows	-5774
▁cones	-5775
▁eight	-5776
▁nails	-5777
▁pears	-5778
▁seven	-5779
▁sighs	-5780
uctions	-5781
▁Muffin	-5782
▁Pepper	-5783
▁Rollie	-5784
▁comple	-5785
▁diving	-5786
▁fascin	-5787
▁traded	-5788
Remember	-5789
▁accompl	-5790
▁flutter	-5791
▁mittens	-5792
▁peppers	-5793
▁rescued	-5794
▁ribbons	-5795
▁scooped	-5796
▁airplane	-5797
▁balanced	-5798
▁blooming	-5799
▁bringing	-5800
▁cushions	-5801
▁demanded	-5802
▁patience	-5803
▁penguins	-5804
▁splashes	-5805
▁passports	-5806
▁scattering	-5807
▁celebration	-5808
▁instructions	-5809
Ex	-5810
Le	-5811
Uh	-5812
Bad	-5813
Our	-5814
die	-5815
zie	-5816
Have	-5817
iggy	-5818
lict	-5819
▁Get	-5820
▁Gir	-5821
▁Hor	-5822
▁boo	-5823
▁oat	-5824
▁unf	-5825
Achoo	-5826
▁todd	-5827
▁Betsy	-5828
▁Jilly	-5829
▁Leave	-5830
▁baker	-5831
▁froze	-5832
▁pause	-5833
▁untie	-5834
▁usual	-5835
▁drives	-5836
▁laying	-5837
▁learns	-5838
▁purred	-5839
▁refres	-5840
▁reluct	-5841
▁scales	-5842
▁villag	-5843
▁wizard	-5844
▁Brownie	-5845
▁mission	-5846
▁officer	-5847
▁sadness	-5848
▁Elephant	-5849
▁backward	-5850
▁conflict	-5851
▁examined	-5852
▁homework	-5853
▁reminder	-5854
▁starfish	-5855
▁visiting	-5856
▁apologize	-5857
▁applauded	-5858
▁explorers	-5859
▁goodnight	-5860
▁protected	-5861
▁organizing	-5862
▁protecting	-5863
aa	-5864
bl	-5865
jo	-5866
oh	-5867
▁Q	-5868
ern	-5869
ords	-5870
step	-5871
▁Jon	-5872
▁Pam	-5873
▁exa	-5874
arter	-5875
bbled	-5876
iders	-5877
igail	-5878
▁Anne	-5879
▁Beth	-5880
▁Dara	-5881
▁Love	-5882
▁guns	-5883
▁wins	-5884
▁Green	-5885
▁Suzie	-5886
▁cause	-5887
▁rides	-5888
▁wound	-5889
▁barely	-5890
▁dipped	-5891
▁muscle	-5892
▁smiley	-5893
▁spells	-5894
▁spikes	-5895
▁struck	-5896
▁Abigail	-5897
▁cracked	-5898
▁dragged	-5899
▁figures	-5900
▁helpers	-5901
▁leading	-5902
▁pastels	-5903
▁planets	-5904
▁smarter	-5905
▁toddler	-5906
▁victory	-5907
▁Princess	-5908
▁changing	-5909
▁prettier	-5910
▁released	-5911
▁shivered	-5912
▁smallest	-5913
▁whatever	-5914
▁firefight	-5915
▁recording	-5916
▁yesterday	-5917
▁reluctantly	-5918
▁En	-5919
▁Ex	-5920
anna	-5921
nies	-5922
▁dam	-5923
▁die	-5924
jamas	-5925
▁Chew	-5926
▁Robo	-5927
▁Star	-5928
▁bank	-5929
▁cous	-5930
▁vent	-5931
▁Buggy	-5932
▁Fishy	-5933
▁Holly	-5934
▁annoy	-5935
▁bowls	-5936
▁click	-5937
▁reply	-5938
▁rings	-5939
▁stern	-5940
▁stole	-5941
▁Prince	-5942
▁behavi	-5943
▁covers	-5944
▁shirts	-5945
▁united	-5946
▁Because	-5947
▁anytime	-5948
▁buzzing	-5949
▁exactly	-5950
▁firemen	-5951
▁hugging	-5952
▁packing	-5953
▁rockets	-5954
▁Squirrel	-5955
▁becoming	-5956
▁inviting	-5957
▁precious	-5958
▁sunlight	-5959
▁warnings	-5960
▁sprinkles	-5961
▁delivering	-5962
Ah	-5963
Ro	-5964
bly	-5965
eah	-5966
irm	-5967
ten	-5968
uly	-5969
uzz	-5970
▁Po	-5971
Oops	-5972
Then	-5973
fied	-5974
rink	-5975
ueen	-5976
▁Top	-5977
▁Woo	-5978
▁wid	-5979
Silly	-5980
guing	-5981
iding	-5982
▁peas	-5983
▁pins	-5984
▁Belle	-5985
▁Queen	-5986
▁chips	-5987
▁fault	-5988
▁joked	-5989
▁masks	-5990
▁refle	-5991
▁sense	-5992
▁vines	-5993
▁weren	-5994
▁whose	-5995
▁wraps	-5996
▁Turtle	-5997
▁Zipper	-5998
▁arrive	-5999
▁cocoon	-6000
▁cuddle	-6001
▁gotten	-6002
▁misses	-6003
▁peered	-6004
▁sports	-6005
▁arguing	-6006
▁pajamas	-6007
▁sending	-6008
▁tickets	-6009
▁wiggled	-6010
▁introduc	-6011
▁possible	-6012
▁sparkles	-6013
▁separated	-6014
▁situation	-6015
▁snowballs	-6016
▁villagers	-6017
▁activities	-6018
▁complained	-6019
▁princesses	-6020
▁quarreling	-6021
Gra	-6022
dam	-6023
rey	-6024
▁Je	-6025
▁Sw	-6026
bric	-6027
cuse	-6028
▁gri	-6029
▁hus	-6030
▁Adam	-6031
▁Hoot	-6032
▁Stay	-6033
▁Want	-6034
▁firm	-6035
▁naps	-6036
▁pout	-6037
▁thro	-6038
▁woof	-6039
atches	-6040
▁Chess	-6041
▁Horsy	-6042
▁Patch	-6043
▁Sadie	-6044
▁Sadly	-6045
▁Truck	-6046
▁Whist	-6047
▁bells	-6048
▁belly	-6049
▁brand	-6050
▁greet	-6051
▁itchy	-6052
▁items	-6053
▁kicks	-6054
▁paths	-6055
▁sides	-6056
▁spins	-6057
▁truly	-6058
▁twirl	-6059
▁yells	-6060
▁Stella	-6061
▁biting	-6062
▁caused	-6063
▁cuddly	-6064
▁fabric	-6065
▁groups	-6066
▁knocks	-6067
▁mailed	-6068
▁motion	-6069
▁plenty	-6070
▁powers	-6071
▁teased	-6072
▁tricky	-6073
▁Giraffe	-6074
▁Nothing	-6075
▁Snowman	-6076
▁Sparkle	-6077
▁Without	-6078
▁bounces	-6079
▁choices	-6080
▁farther	-6081
▁perched	-6082
▁pockets	-6083
▁scarves	-6084
▁spiders	-6085
▁tractor	-6086
▁travell	-6087
▁widened	-6088
▁blocking	-6089
▁chirping	-6090
▁forehead	-6091
▁growling	-6092
▁improved	-6093
▁properly	-6094
▁rainbows	-6095
▁snatched	-6096
▁somebody	-6097
▁startled	-6098
▁completed	-6099
▁curiosity	-6100
▁forgiving	-6101
▁increased	-6102
▁requested	-6103
▁fascinated	-6104
▁discovering	-6105
▁grandmother	-6106
▁superheroes	-6107
Ch	-6108
Or	-6109
...	-6110
Cat	-6111
eal	-6112
vin	-6113
Yeah	-6114
aker	-6115
anes	-6116
seek	-6117
▁Lau	-6118
▁Oak	-6119
▁Pup	-6120
▁Put	-6121
▁Say	-6122
▁Zee	-6123
▁bur	-6124
▁dar	-6125
▁fut	-6126
▁rip	-6127
ining	-6128
inkle	-6129
steps	-6130
▁Paws	-6131
▁Wink	-6132
▁nine	-6133
▁pops	-6134
▁swit	-6135
Excuse	-6136
Listen	-6137
though	-6138
▁Janie	-6139
▁dived	-6140
▁polar	-6141
▁swoop	-6142
▁Birdie	-6143
▁Shadow	-6144
▁buzzed	-6145
▁chases	-6146
▁future	-6147
▁honked	-6148
▁images	-6149
▁pointy	-6150
▁sobbed	-6151
▁stands	-6152
▁throat	-6153
▁folding	-6154
▁hallway	-6155
▁handful	-6156
▁listens	-6157
▁neither	-6158
▁rocking	-6159
▁soaring	-6160
▁tunnels	-6161
▁usually	-6162
▁worries	-6163
▁behaving	-6164
▁creating	-6165
▁curtains	-6166
▁giggling	-6167
▁observed	-6168
▁promises	-6169
▁reaching	-6170
▁rewarded	-6171
▁direction	-6172
▁policeman	-6173
▁shrinking	-6174
==	-6175
Fo	-6176
nk	-6177
Mum	-6178
bie	-6179
eds	-6180
ido	-6181
lay	-6182
une	-6183
▁Ol	-6184
▁Sl	-6185
Hold	-6186
ason	-6187
onge	-6188
tuce	-6189
yond	-6190
▁Cla	-6191
▁ast	-6192
▁avo	-6193
▁lap	-6194
▁unp	-6195
Quack	-6196
cakes	-6197
iggie	-6198
ustom	-6199
▁Crab	-6200
▁Fido	-6201
▁Jeff	-6202
▁Jojo	-6203
▁Olly	-6204
▁cans	-6205
▁cent	-6206
▁chop	-6207
▁dent	-6208
▁gasp	-6209
▁repa	-6210
▁sank	-6211
▁scur	-6212
▁sibl	-6213
abella	-6214
angled	-6215
▁Jacky	-6216
▁Mouse	-6217
▁chuck	-6218
▁gross	-6219
▁grows	-6220
▁nests	-6221
▁noses	-6222
▁stays	-6223
▁tasks	-6224
▁Biggie	-6225
▁Kaylee	-6226
▁agrees	-6227
▁beyond	-6228
▁bodies	-6229
▁contro	-6230
▁custom	-6231
▁growls	-6232
▁movies	-6233
▁seesaw	-6234
▁sponge	-6235
▁untied	-6236
▁corners	-6237
▁deserve	-6238
▁firefly	-6239
▁husband	-6240
▁leaning	-6241
▁lettuce	-6242
▁napkins	-6243
▁staring	-6244
▁vanilla	-6245
▁basement	-6246
▁dropping	-6247
▁everyday	-6248
▁pretends	-6249
▁scurried	-6250
▁siblings	-6251
▁suffered	-6252
▁whispers	-6253
▁bracelets	-6254
▁completely	-6255
▁interested	-6256
▁celebrating	-6257
?'	-6258
Run	-6259
awn	-6260
eed	-6261
▁Pu	-6262
▁Sc	-6263
Very	-6264
Whee	-6265
iley	-6266
ooed	-6267
pite	-6268
utty	-6269
▁Cow	-6270
▁Fit	-6271
▁Mam	-6272
▁Mix	-6273
▁Our	-6274
▁Tam	-6275
▁yum	-6276
Somet	-6277
Those	-6278
itely	-6279
joyed	-6280
▁Near	-6281
▁Nice	-6282
▁Pine	-6283
▁dots	-6284
▁entr	-6285
▁fact	-6286
▁keys	-6287
▁slam	-6288
lowers	-6289
▁Along	-6290
▁Candy	-6291
▁Davey	-6292
▁Megan	-6293
▁Other	-6294
▁merry	-6295
▁reads	-6296
▁sails	-6297
▁vowed	-6298
▁Claire	-6299
▁Thanks	-6300
▁dollar	-6301
▁losing	-6302
▁partic	-6303
▁patted	-6304
▁potion	-6305
▁ranger	-6306
▁singer	-6307
▁sweets	-6308
▁wobbly	-6309
▁Tweetie	-6310
▁Twinkle	-6311
▁bravery	-6312
▁however	-6313
▁peeking	-6314
▁squares	-6315
▁squishy	-6316
▁surface	-6317
▁tearing	-6318
▁tickled	-6319
▁wishing	-6320
▁Isabella	-6321
▁pumpkins	-6322
▁repaired	-6323
▁replaced	-6324
▁speaking	-6325
▁supplies	-6326
▁ventured	-6327
▁backwards	-6328
▁batteries	-6329
▁confident	-6330
▁spreading	-6331
▁accomplish	-6332
▁practicing	-6333
cl	-6334
?",	-6335
Dog	-6336
fly	-6337
ivi	-6338
▁ni	-6339
Fine	-6340
Mine	-6341
▁Ind	-6342
▁Per	-6343
▁pec	-6344
Great	-6345
Today	-6346
Yummy	-6347
haust	-6348
order	-6349
▁Book	-6350
▁Liam	-6351
▁Rudy	-6352
▁Toot	-6353
▁Vivi	-6354
▁Yawn	-6355
▁choo	-6356
▁deal	-6357
▁grip	-6358
▁padd	-6359
▁ripe	-6360
▁risk	-6361
▁stem	-6362
▁uses	-6363
ctions	-6364
father	-6365
▁Dizzy	-6366
▁Enjoy	-6367
▁Nutty	-6368
▁Sorry	-6369
▁Ziggy	-6370
▁aside	-6371
▁chefs	-6372
▁knees	-6373
▁outdo	-6374
▁rolls	-6375
▁roses	-6376
▁satis	-6377
▁stain	-6378
▁wires	-6379
▁Jackie	-6380
▁Mother	-6381
▁arrows	-6382
▁calmed	-6383
▁counts	-6384
▁desert	-6385
▁entire	-6386
▁flames	-6387
▁guests	-6388
▁marked	-6389
▁paddle	-6390
▁poster	-6391
▁shorts	-6392
▁softer	-6393
▁sprang	-6394
▁steady	-6395
▁Monster	-6396
▁dentist	-6397
▁filling	-6398
▁lighter	-6399
▁mommies	-6400
▁players	-6401
▁pouring	-6402
▁rotting	-6403
▁snowmen	-6404
▁stroked	-6405
▁student	-6406
▁workers	-6407
▁Birthday	-6408
▁dolphins	-6409
▁entrance	-6410
▁minerals	-6411
▁planning	-6412
▁unpacked	-6413
▁comforted	-6414
▁footsteps	-6415
▁necklaces	-6416
▁refreshed	-6417
▁scratches	-6418
▁twinkling	-6419
▁wandering	-6420
▁decorating	-6421
▁reflection	-6422
▁competition	-6423
▁firefighters	-6424
aye	-6425
ela	-6426
rix	-6427
uri	-6428
zes	-6429
▁Se	-6430
▁Wo	-6431
Bobo	-6432
Jack	-6433
Roar	-6434
Take	-6435
alph	-6436
iles	-6437
inny	-6438
ofty	-6439
sequ	-6440
weet	-6441
▁Hur	-6442
▁Jay	-6443
▁Oxy	-6444
▁opp	-6445
▁wow	-6446
ampol	-6447
brush	-6448
ently	-6449
ledge	-6450
rixie	-6451
vroom	-6452
▁Faye	-6453
▁Mild	-6454
▁Mint	-6455
▁Suki	-6456
▁beam	-6457
▁chat	-6458
▁conn	-6459
▁heav	-6460
▁mood	-6461
▁tiss	-6462
Follow	-6463
▁Softy	-6464
▁begin	-6465
▁bunch	-6466
▁burns	-6467
▁drums	-6468
▁elbow	-6469
▁hider	-6470
▁least	-6471
▁notes	-6472
▁piggy	-6473
▁steer	-6474
▁stool	-6475
▁third	-6476
hausted	-6477
umbling	-6478
▁Trixie	-6479
▁cheeks	-6480
▁closes	-6481
▁flavor	-6482
▁prayer	-6483
▁relief	-6484
▁rising	-6485
▁seeker	-6486
▁signed	-6487
▁single	-6488
▁towels	-6489
▁waiter	-6490
▁winked	-6491
ampoline	-6492
sequence	-6493
▁Goodbye	-6494
▁bathing	-6495
▁licking	-6496
▁passing	-6497
▁respons	-6498
▁shelves	-6499
▁shovels	-6500
▁surfing	-6501
▁tangled	-6502
▁touches	-6503
Sometimes	-6504
▁chuckled	-6505
▁flapping	-6506
▁included	-6507
▁outdoors	-6508
▁pastries	-6509
▁recorder	-6510
▁watering	-6511
▁knowledge	-6512
▁lollipops	-6513
▁overjoyed	-6514
▁performed	-6515
▁strongest	-6516
▁supported	-6517
▁Afterwards	-6518
▁trampoline	-6519
▁consequence	-6520
▁remembering	-6521
no	-6522
Get	-6523
ael	-6524
ces	-6525
een	-6526
rom	-6527
rrr	-6528
ths	-6529
▁10	-6530
▁Ju	-6531
anny	-6532
bert	-6533
fall	-6534
▁Ell	-6535
▁Pen	-6536
▁Reg	-6537
▁aff	-6538
▁bru	-6539
▁Brad	-6540
▁Dina	-6541
▁Mich	-6542
▁bars	-6543
▁ends	-6544
▁fart	-6545
▁fits	-6546
▁impo	-6547
▁sale	-6548
▁spat	-6549
▁stew	-6550
▁turt	-6551
isions	-6552
urious	-6553
▁Bally	-6554
▁Jones	-6555
▁Ralph	-6556
▁aimed	-6557
▁baths	-6558
▁blown	-6559
▁icing	-6560
▁rains	-6561
▁rusty	-6562
▁sewed	-6563
▁ships	-6564
▁thorn	-6565
▁wipes	-6566
autious	-6567
▁Jennie	-6568
▁Shiver	-6569
▁Spirit	-6570
▁adding	-6571
▁cousin	-6572
▁humans	-6573
▁minded	-6574
▁rocked	-6575
▁rumble	-6576
▁swords	-6577
▁tables	-6578
▁Michael	-6579
▁achieve	-6580
▁control	-6581
▁dancers	-6582
▁darling	-6583
▁fairies	-6584
▁instrum	-6585
▁joining	-6586
▁kittens	-6587
▁loading	-6588
▁matters	-6589
▁prayers	-6590
▁swooped	-6591
▁toaster	-6592
▁turtles	-6593
▁darkness	-6594
▁forgiven	-6595
▁machines	-6596
▁sneezing	-6597
▁squeaked	-6598
▁twirling	-6599
▁whistles	-6600
▁Hurricane	-6601
▁backpacks	-6602
▁decisions	-6603
▁exhausted	-6604
▁hesitated	-6605
▁mushrooms	-6606
▁ornaments	-6607
▁impossible	-6608
▁introduced	-6609
▁particular	-6610
▁consequences	-6611
▁surroundings	-6612
hi	-6613
sm	-6614
wh	-6615
Car	-6616
chy	-6617
cie	-6618
ept	-6619
ody	-6620
oke	-6621
you	-6622
▁Up	-6623
abel	-6624
ades	-6625
eese	-6626
gers	-6627
ters	-6628
▁Baa	-6629
▁Cel	-6630
▁Exc	-6631
▁Fle	-6632
▁Mad	-6633
▁Two	-6634
▁goo	-6635
▁und	-6636
▁uns	-6637
Tommy	-6638
ading	-6639
dding	-6640
neath	-6641
▁Didi	-6642
▁Elle	-6643
▁Indy	-6644
▁Pink	-6645
▁Toys	-6646
▁nuzz	-6647
▁Bluey	-6648
▁Kelly	-6649
▁Percy	-6650
▁Those	-6651
▁aloud	-6652
▁bumps	-6653
▁carts	-6654
▁crumb	-6655
▁curly	-6656
▁erase	-6657
▁fever	-6658
▁forks	-6659
▁geese	-6660
▁guide	-6661
▁loops	-6662
▁neare	-6663
▁prick	-6664
▁salty	-6665
▁stung	-6666
▁tipto	-6667
▁wakes	-6668
▁wrist	-6669
▁Albert	-6670
▁Gracie	-6671
▁Starry	-6672
▁angels	-6673
▁clowns	-6674
▁ghosts	-6675
▁health	-6676
▁mesmer	-6677
▁robber	-6678
▁sewing	-6679
▁skirts	-6680
▁slowed	-6681
▁sparks	-6682
▁tested	-6683
alloween	-6684
▁Excited	-6685
▁Whistle	-6686
▁doctors	-6687
▁forgets	-6688
▁gobbled	-6689
▁heading	-6690
▁heavier	-6691
▁jackets	-6692
▁lending	-6693
▁nodding	-6694
▁slammed	-6695
▁stumble	-6696
▁swimmer	-6697
▁talents	-6698
▁tighter	-6699
▁frowning	-6700
▁twisting	-6701
▁regretted	-6702
▁directions	-6703
▁gracefully	-6704
▁yourselves	-6705
▁grandfather	-6706
▁determination	-6707
--	-6708
An	-6709
Cl	-6710
Tr	-6711
.'"	-6712
fit	-6713
iel	-6714
▁Ed	-6715
▁La	-6716
▁Te	-6717
▁ev	-6718
▁sy	-6719
Keep	-6720
icky	-6721
oosh	-6722
osty	-6723
▁Cro	-6724
▁Try	-6725
▁bun	-6726
▁cor	-6727
▁den	-6728
Vroom	-6729
iolet	-6730
▁Gray	-6731
▁Hold	-6732
▁Time	-6733
▁Zero	-6734
▁leap	-6735
▁lies	-6736
▁rows	-6737
▁rubs	-6738
▁self	-6739
Shrink	-6740
iggles	-6741
ronaut	-6742
▁Match	-6743
▁Shake	-6744
▁Tippy	-6745
▁Trust	-6746
▁among	-6747
▁avoid	-6748
▁badge	-6749
▁bumpy	-6750
▁disob	-6751
▁feast	-6752
▁fleas	-6753
▁glued	-6754
▁hides	-6755
▁loses	-6756
▁mater	-6757
▁skunk	-6758
▁snuck	-6759
▁solut	-6760
▁swept	-6761
▁tweet	-6762
Grandma	-6763
reverse	-6764
▁Daniel	-6765
▁Frosty	-6766
▁active	-6767
▁combed	-6768
▁crumbs	-6769
▁donkey	-6770
▁frowns	-6771
▁magpie	-6772
▁models	-6773
▁outfit	-6774
▁pecked	-6775
▁stroll	-6776
▁sweaty	-6777
▁tissue	-6778
▁videos	-6779
▁warmer	-6780
iversity	-6781
▁annoyed	-6782
▁cobwebs	-6783
▁honesty	-6784
▁hopeful	-6785
▁insects	-6786
▁objects	-6787
▁pleaded	-6788
▁ruining	-6789
▁yielded	-6790
▁breathed	-6791
▁cautious	-6792
▁customer	-6793
▁farthest	-6794
▁slipping	-6795
▁switched	-6796
▁astronaut	-6797
▁dollhouse	-6798
▁sunscreen	-6799
▁paintbrush	-6800
▁performing	-6801
▁underneath	-6802
▁countryside	-6803
cc	-6804
Put	-6805
ans	-6806
ilo	-6807
rup	-6808
▁Ra	-6809
Boys	-6810
Jump	-6811
aned	-6812
arac	-6813
bbie	-6814
cept	-6815
ddie	-6816
fted	-6817
indr	-6818
llen	-6819
uren	-6820
▁Chr	-6821
▁Cra	-6822
▁Day	-6823
▁age	-6824
▁aud	-6825
▁def	-6826
▁dod	-6827
▁occ	-6828
▁tig	-6829
▁unw	-6830
Buddy	-6831
Daisy	-6832
piece	-6833
▁Ball	-6834
▁Fish	-6835
▁June	-6836
▁Milo	-6837
▁Nate	-6838
▁Snap	-6839
▁ache	-6840
▁cash	-6841
▁earn	-6842
▁fans	-6843
▁purr	-6844
▁scra	-6845
▁sens	-6846
▁sway	-6847
▁Abbie	-6848
▁Eddie	-6849
▁Laser	-6850
▁Mamma	-6851
▁anger	-6852
▁ashes	-6853
▁joins	-6854
▁leads	-6855
▁munch	-6856
▁plain	-6857
▁rainy	-6858
▁rever	-6859
▁scrub	-6860
▁sculp	-6861
▁shown	-6862
▁spits	-6863
▁zooms	-6864
indrops	-6865
▁Listen	-6866
▁Woolly	-6867
▁adults	-6868
▁backed	-6869
▁buying	-6870
▁charac	-6871
▁creams	-6872
▁damage	-6873
▁flight	-6874
▁gazing	-6875
▁halves	-6876
▁materi	-6877
▁rather	-6878
▁reason	-6879
▁slower	-6880
▁tigers	-6881
▁tipped	-6882
▁unsure	-6883
▁Wiggles	-6884
▁William	-6885
▁loudest	-6886
▁markers	-6887
▁prickly	-6888
▁reminds	-6889
▁slither	-6890
▁Although	-6891
▁blinking	-6892
▁designed	-6893
▁ignoring	-6894
▁knocking	-6895
▁planting	-6896
▁printing	-6897
▁stuffing	-6898
▁talented	-6899
▁trusting	-6900
▁visitors	-6901
▁Halloween	-6902
▁curiously	-6903
▁dragonfly	-6904
▁imagining	-6905
▁including	-6906
▁prevented	-6907
▁raindrops	-6908
▁sculpture	-6909
▁squeezing	-6910
▁treehouse	-6911
▁afterwards	-6912
▁masterpiece	-6913
▁responsible	-6914
!”.	-6915
'."	-6916
Che	-6917
Rex	-6918
hny	-6919
ira	-6920
itu	-6921
len	-6922
nap	-6923
pit	-6924
uno	-6925
▁Ha	-6926
▁Ke	-6927
▁Ph	-6928
Jane	-6929
Mimi	-6930
aled	-6931
amil	-6932
aren	-6933
endy	-6934
inda	-6935
issa	-6936
uing	-6937
umph	-6938
wise	-6939
▁Tia	-6940
▁tid	-6941
▁tin	-6942
Hurry	-6943
achel	-6944
artha	-6945
ching	-6946
found	-6947
itude	-6948
obody	-6949
osite	-6950
using	-6951
▁Bark	-6952
▁Days	-6953
▁Jump	-6954
▁Ruff	-6955
▁Soup	-6956
▁Wake	-6957
▁abil	-6958
▁bows	-6959
▁cott	-6960
▁evil	-6961
▁fins	-6962
▁form	-6963
▁insp	-6964
▁papa	-6965
▁sill	-6966
▁ting	-6967
Always	-6968
ampion	-6969
ceries	-6970
itches	-6971
laying	-6972
uggles	-6973
▁Acorn	-6974
▁Bloom	-6975
▁Bruno	-6976
▁Cally	-6977
▁Johny	-6978
▁Karen	-6979
▁Laura	-6980
▁Still	-6981
▁Wendy	-6982
▁buses	-6983
▁freed	-6984
▁lower	-6985
▁maker	-6986
▁miles	-6987
▁mooed	-6988
▁occas	-6989
▁rails	-6990
▁talks	-6991
▁tires	-6992
▁twice	-6993
▁unwra	-6994
amiliar	-6995
pecting	-6996
▁Amanda	-6997
▁Auntie	-6998
▁Copper	-6999
▁Lauren	-7000
▁Maddie	-7001
▁Martha	-7002
▁Oliver	-7003
▁Rachel	-7004
▁Violet	-7005
▁Weapon	-7006
▁amount	-7007
▁cheers	-7008
▁colder	-7009
▁firmly	-7010
▁indeed	-7011
▁source	-7012
▁stolen	-7013
▁temper	-7014
▁tossed	-7015
▁twists	-7016
▁wealth	-7017
▁wiping	-7018
▁wounds	-7019
▁Melissa	-7020
▁bottles	-7021
▁bunnies	-7022
▁camping	-7023
▁colored	-7024
▁drivers	-7025
▁flipped	-7026
▁lifting	-7027
▁nearest	-7028
▁oysters	-7029
▁paddled	-7030
▁plucked	-7031
▁presses	-7032
▁rubbing	-7033
▁soaking	-7034
▁solving	-7035
▁tasting	-7036
▁wobbled	-7037
▁Snuggles	-7038
▁audience	-7039
▁bandages	-7040
▁brushing	-7041
▁champion	-7042
▁duckling	-7043
▁journeys	-7044
▁opposite	-7045
▁overcome	-7046
▁pleasure	-7047
▁reversed	-7048
▁solution	-7049
▁stopping	-7050
▁twinkled	-7051
▁behaviour	-7052
▁everybody	-7053
▁fluttered	-7054
▁groceries	-7055
▁reminding	-7056
▁satisfied	-7057
▁surfboard	-7058
▁travelled	-7059
▁surprising	-7060
▁unfamiliar	-7061
▁recommended	-7062
▁caterpillars	-7063
▁accomplishment	-7064
!’	-7065
Bl	-7066
Gu	-7067
On	-7068
Ri	-7069
?!"	-7070
amb	-7071
but	-7072
cho	-7073
cky	-7074
erm	-7075
ici	-7076
lsa	-7077
son	-7078
urr	-7079
woo	-7080
▁Ar	-7081
▁Op	-7082
▁ty	-7083
Bang	-7084
Beep	-7085
Lila	-7086
Ribb	-7087
ably	-7088
aver	-7089
cher	-7090
idey	-7091
osen	-7092
owny	-7093
ptop	-7094
what	-7095
▁Aly	-7096
▁Ang	-7097
▁Ant	-7098
▁App	-7099
▁Jem	-7100
▁Old	-7101
▁Pin	-7102
▁Ria	-7103
▁Roy	-7104
▁Ske	-7105
▁Yet	-7106
Guess	-7107
ashes	-7108
feree	-7109
ition	-7110
itted	-7111
oring	-7112
▁Cici	-7113
▁Elsa	-7114
▁Hook	-7115
▁Jody	-7116
▁Oink	-7117
▁Poor	-7118
▁Purr	-7119
▁Show	-7120
▁Tank	-7121
▁Yell	-7122
▁char	-7123
▁cond	-7124
▁dump	-7125
▁ease	-7126
▁echo	-7127
▁flip	-7128
▁lump	-7129
▁ouch	-7130
▁rays	-7131
▁swap	-7132
▁tops	-7133
▁yelp	-7134
Ribbit	-7135
hopper	-7136
ighing	-7137
romise	-7138
▁Bumpy	-7139
▁Dusty	-7140
▁Flora	-7141
▁Kayla	-7142
▁Stret	-7143
▁Tiger	-7144
▁backs	-7145
▁belts	-7146
▁corre	-7147
▁flock	-7148
▁flown	-7149
▁force	-7150
▁lifts	-7151
▁robin	-7152
▁spice	-7153
▁swall	-7154
▁taped	-7155
▁tubes	-7156
Alright	-7157
▁Angela	-7158
▁Meowny	-7159
▁Skelly	-7160
▁Spidey	-7161
▁Tweety	-7162
▁action	-7163
▁banged	-7164
▁chosen	-7165
▁circus	-7166
▁goalie	-7167
▁inches	-7168
▁laptop	-7169
▁neatly	-7170
▁onions	-7171
▁onward	-7172
▁parted	-7173
▁pouted	-7174
▁robots	-7175
▁scored	-7176
▁sharks	-7177
▁squeak	-7178
▁strips	-7179
▁stroke	-7180
▁thrown	-7181
▁within	-7182
chievous	-7183
▁Curious	-7184
▁Frankie	-7185
▁Welcome	-7186
▁becomes	-7187
▁cashier	-7188
▁drifted	-7189
▁efforts	-7190
▁figured	-7191
▁healing	-7192
▁pigeons	-7193
▁raccoon	-7194
▁referee	-7195
▁repeats	-7196
▁results	-7197
▁seasons	-7198
▁tapping	-7199
▁wasting	-7200
▁weekend	-7201
▁written	-7202
▁younger	-7203
▁borrowed	-7204
▁coloured	-7205
▁decision	-7206
▁dripping	-7207
▁encourag	-7208
▁explorer	-7209
▁familiar	-7210
▁gardener	-7211
▁guardian	-7212
▁inspired	-7213
▁newfound	-7214
▁pancakes	-7215
▁playroom	-7216
▁sniffing	-7217
▁speeding	-7218
▁swimsuit	-7219
▁trembled	-7220
▁troubles	-7221
▁repeating	-7222
▁respected	-7223
▁swallowed	-7224
▁apologised	-7225
▁forgetting	-7226
▁peacefully	-7227
▁punishment	-7228
▁automobiles	-7229
▁friendships	-7230
▁grasshopper	-7231
▁mischievous	-7232
ji	-7233
pr	-7234
sa	-7235
▁2	-7236
All	-7237
Leo	-7238
Try	-7239
hog	-7240
imm	-7241
sse	-7242
the	-7243
▁Bi	-7244
▁CD	-7245
Like	-7246
Some	-7247
Zoom	-7248
apot	-7249
atur	-7250
cope	-7251
form	-7252
hive	-7253
opes	-7254
orky	-7255
rier	-7256
rily	-7257
thur	-7258
vers	-7259
▁Cha	-7260
▁Des	-7261
▁Isn	-7262
▁Luc	-7263
▁Mop	-7264
▁Pol	-7265
▁aim	-7266
▁caw	-7267
▁hoo	-7268
▁lan	-7269
▁swo	-7270
▁tot	-7271
acles	-7272
armer	-7273
ening	-7274
match	-7275
mates	-7276
▁Lion	-7277
▁Maya	-7278
▁Nora	-7279
▁Pill	-7280
▁Pret	-7281
▁Stan	-7282
▁Tidy	-7283
▁Woof	-7284
▁cons	-7285
▁cosy	-7286
▁lamb	-7287
▁lent	-7288
▁plot	-7289
▁rats	-7290
▁rect	-7291
▁rust	-7292
▁scen	-7293
igning	-7294
▁Cloud	-7295
▁Flame	-7296
▁Forky	-7297
▁Pizza	-7298
▁Puppy	-7299
▁Smoke	-7300
▁Willy	-7301
▁bully	-7302
▁coach	-7303
▁drawn	-7304
▁knots	-7305
▁pokes	-7306
▁purrs	-7307
▁shady	-7308
▁weeds	-7309
▁whimp	-7310
▁wrink	-7311
▁Arthur	-7312
▁Crabby	-7313
▁Farmer	-7314
▁Granny	-7315
▁Louise	-7316
▁Nobody	-7317
▁Steppy	-7318
▁Willow	-7319
▁Yellow	-7320
▁fooled	-7321
▁height	-7322
▁joyful	-7323
▁messes	-7324
▁miller	-7325
▁napped	-7326
▁queens	-7327
▁secure	-7328
▁shaped	-7329
▁sniffs	-7330
▁spices	-7331
▁spills	-7332
▁teapot	-7333
▁thorns	-7334
▁waking	-7335
▁Despite	-7336
▁Leopard	-7337
▁arrives	-7338
▁beehive	-7339
▁bellies	-7340
▁bruises	-7341
▁cleaner	-7342
▁cracker	-7343
▁designs	-7344
▁disobey	-7345
▁dresser	-7346
▁groaned	-7347
▁lantern	-7348
▁lizards	-7349
▁lowered	-7350
▁needles	-7351
▁nuzzled	-7352
▁patches	-7353
▁purpose	-7354
▁sandpit	-7355
▁smashed	-7356
▁swollen	-7357
▁tiptoed	-7358
▁willing	-7359
▁winners	-7360
▁behavior	-7361
▁bothered	-7362
▁crossing	-7363
▁grabbing	-7364
▁guessing	-7365
▁haircuts	-7366
▁hedgehog	-7367
▁packages	-7368
▁smelling	-7369
▁spoonful	-7370
▁stitches	-7371
▁weighing	-7372
▁wrapping	-7373
▁beginning	-7374
▁bothering	-7375
▁breathing	-7376
▁connected	-7377
▁languages	-7378
▁librarian	-7379
▁moonlight	-7380
▁playhouse	-7381
▁sensation	-7382
▁cautiously	-7383
▁enthusiasm	-7384
▁invitations	-7385
ba	-7386
ez	-7387
lt	-7388
afy	-7389
ezi	-7390
fus	-7391
iky	-7392
ldy	-7393
ley	-7394
oey	-7395
omb	-7396
rie	-7397
rig	-7398
ulf	-7399
yes	-7400
▁Ni	-7401
▁Ti	-7402
beep	-7403
byes	-7404
ears	-7405
iddy	-7406
izon	-7407
rick	-7408
seed	-7409
that	-7410
tock	-7411
zoom	-7412
▁Arm	-7413
▁Cir	-7414
▁Con	-7415
▁Man	-7416
▁Toy	-7417
▁dip	-7418
▁ill	-7419
▁inj	-7420
▁pon	-7421
▁sav	-7422
▁tum	-7423
First	-7424
Tweet	-7425
anced	-7426
annah	-7427
armen	-7428
eling	-7429
ighty	-7430
illed	-7431
immer	-7432
iving	-7433
ivity	-7434
orter	-7435
ppies	-7436
river	-7437
ssess	-7438
▁Dezi	-7439
▁Doll	-7440
▁Fire	-7441
▁Joan	-7442
▁Mixy	-7443
▁Mush	-7444
▁Okay	-7445
▁Rain	-7446
▁Rich	-7447
▁Rosa	-7448
▁Take	-7449
▁Tree	-7450
▁Zoey	-7451
▁bomb	-7452
▁coug	-7453
▁cowb	-7454
▁deed	-7455
▁gems	-7456
▁gest	-7457
▁jobs	-7458
▁serv	-7459
▁wept	-7460
ertain	-7461
orking	-7462
▁Apple	-7463
▁Becky	-7464
▁Benji	-7465
▁Bobba	-7466
▁Books	-7467
▁Climb	-7468
▁Cocoa	-7469
▁Comet	-7470
▁Croco	-7471
▁Grand	-7472
▁Janey	-7473
▁Jonny	-7474
▁Leafy	-7475
▁Mabel	-7476
▁Rufus	-7477
▁Spoon	-7478
▁blast	-7479
▁cares	-7480
▁clues	-7481
▁craft	-7482
▁defin	-7483
▁edges	-7484
▁fills	-7485
▁films	-7486
▁focus	-7487
▁gasps	-7488
▁kings	-7489
▁laces	-7490
▁meals	-7491
▁mints	-7492
▁momma	-7493
▁moons	-7494
▁shops	-7495
▁squaw	-7496
▁stomp	-7497
▁sweep	-7498
▁tying	-7499
▁waded	-7500
▁wider	-7501
Sharing	-7502
▁Mighty	-7503
▁Slinky	-7504
▁Summer	-7505
▁beaver	-7506
▁beeped	-7507
▁bitten	-7508
▁center	-7509
▁centre	-7510
▁convin	-7511
▁dances	-7512
▁daring	-7513
▁glared	-7514
▁labels	-7515
▁larger	-7516
▁marker	-7517
▁months	-7518
▁peeled	-7519
▁ponies	-7520
▁screws	-7521
▁scurry	-7522
▁whoosh	-7523
▁wisely	-7524
▁wobble	-7525
urrender	-7526
▁Nibbles	-7527
▁changes	-7528
▁cheaper	-7529
▁clicked	-7530
▁doorway	-7531
▁encount	-7532
▁giggles	-7533
▁horizon	-7534
▁manners	-7535
▁meaning	-7536
▁minding	-7537
▁possess	-7538
▁respond	-7539
▁stamped	-7540
▁tumbled	-7541
▁tummies	-7542
▁Mushroom	-7543
▁activity	-7544
▁birdseed	-7545
▁crackers	-7546
▁goodbyes	-7547
▁handsome	-7548
▁massages	-7549
▁noticing	-7550
▁pinching	-7551
▁probably	-7552
▁relaxing	-7553
▁slapping	-7554
▁sniffled	-7555
▁sweaters	-7556
▁uniforms	-7557
▁worrying	-7558
aterpillar	-7559
▁Everybody	-7560
▁brightest	-7561
▁correctly	-7562
▁discussed	-7563
▁displayed	-7564
▁exercises	-7565
▁insisting	-7566
▁realizing	-7567
▁rectangle	-7568
▁springing	-7569
▁streamers	-7570
▁suffering	-7571
▁waterfall	-7572
▁University	-7573
▁admiration	-7574
▁aeroplanes	-7575
▁belongings	-7576
▁creativity	-7577
▁definitely	-7578
▁destroying	-7579
▁scratching	-7580
▁encouraging	-7581
▁instruments	-7582
▁motorcycles	-7583
▁storekeeper	-7584
▁encouragement	-7585
,'	-7586
Pe	-7587
RR	-7588
yl	-7589
Big	-7590
His	-7591
aya	-7592
bro	-7593
erk	-7594
exi	-7595
omp	-7596
ssy	-7597
ums	-7598
▁''	-7599
▁Fe	-7600
▁Pl	-7601
▁Sk	-7602
▁Ty	-7603
▁fu	-7604
====	-7605
Blue	-7606
Deal	-7607
Even	-7608
Momo	-7609
Only	-7610
Want	-7611
anwh	-7612
arty	-7613
asty	-7614
atty	-7615
bage	-7616
boat	-7617
ctar	-7618
erms	-7619
icip	-7620
irls	-7621
ntil	-7622
ongr	-7623
onna	-7624
onse	-7625
▁Abi	-7626
▁Bad	-7627
▁Mic	-7628
▁Pop	-7629
▁Uni	-7630
▁Yog	-7631
▁ais	-7632
▁mer	-7633
▁nur	-7634
▁wig	-7635
Billy	-7636
Which	-7637
acing	-7638
aling	-7639
ances	-7640
antha	-7641
apers	-7642
cused	-7643
ering	-7644
guess	-7645
hings	-7646
inald	-7647
mbers	-7648
ounce	-7649
stalk	-7650
udrey	-7651
urple	-7652
years	-7653
▁Chip	-7654
▁Flap	-7655
▁Lexi	-7656
▁Mila	-7657
▁Navy	-7658
▁Ouch	-7659
▁Seat	-7660
▁Tato	-7661
▁Tick	-7662
▁Todd	-7663
▁Whip	-7664
▁Wise	-7665
▁acts	-7666
▁aren	-7667
▁bits	-7668
▁bolt	-7669
▁bubb	-7670
▁cafe	-7671
▁clue	-7672
▁cops	-7673
▁dizz	-7674
▁hamm	-7675
▁mitt	-7676
▁pays	-7677
▁pens	-7678
▁plug	-7679
▁puff	-7680
▁rods	-7681
▁sets	-7682
▁stun	-7683
▁ties	-7684
▁toad	-7685
▁tuck	-7686
broken	-7687
driver	-7688
ending	-7689
erious	-7690
ounced	-7691
rigued	-7692
ushing	-7693
▁Bucky	-7694
▁Chris	-7695
▁Chuck	-7696
▁Cross	-7697
▁Giant	-7698
▁Hatty	-7699
▁Judge	-7700
▁Marsh	-7701
▁Moppy	-7702
▁Party	-7703
▁Ready	-7704
▁Satur	-7705
▁Shiny	-7706
▁Since	-7707
▁Swing	-7708
▁Tibby	-7709
▁Until	-7710
▁aware	-7711
▁beast	-7712
▁budge	-7713
▁burst	-7714
▁faded	-7715
▁flaps	-7716
▁genie	-7717
▁glitt	-7718
▁gonna	-7719
▁mayor	-7720
▁nasty	-7721
▁pours	-7722
▁races	-7723
▁reapp	-7724
▁risks	-7725
▁seals	-7726
▁shall	-7727
▁stall	-7728
▁stirs	-7729
▁vests	-7730
anwhile	-7731
keepers	-7732
umphrey	-7733
▁Carmen	-7734
▁Flappy	-7735
▁Hannah	-7736
▁Number	-7737
▁Papaya	-7738
▁Sophia	-7739
▁Spinny	-7740
▁Wonder	-7741
▁affect	-7742
▁bathed	-7743
▁boards	-7744
▁braver	-7745
▁common	-7746
▁commun	-7747
▁concer	-7748
▁cutter	-7749
▁floats	-7750
▁grassy	-7751
▁nectar	-7752
▁owners	-7753
▁rotten	-7754
▁runner	-7755
▁sadder	-7756
▁simply	-7757
▁stings	-7758
▁tapped	-7759
▁toward	-7760
▁visits	-7761
▁whales	-7762
▁writer	-7763
Whiskers	-7764
▁Outside	-7765
▁Shampoo	-7766
▁anticip	-7767
▁beloved	-7768
▁blocked	-7769
▁bravest	-7770
▁cleared	-7771
▁damaged	-7772
▁dangers	-7773
▁delayed	-7774
▁farmers	-7775
▁garbage	-7776
▁greeted	-7777
▁hissing	-7778
▁members	-7779
▁outfits	-7780
▁pennies	-7781
▁rewards	-7782
▁snorted	-7783
▁stacked	-7784
▁sternly	-7785
▁streets	-7786
▁twinkle	-7787
▁visitor	-7788
▁Flexible	-7789
▁Reginald	-7790
▁Saturday	-7791
▁allowing	-7792
▁annoying	-7793
▁consider	-7794
▁driveway	-7795
▁hesitant	-7796
▁magician	-7797
▁panicked	-7798
▁politely	-7799
▁response	-7800
▁seagulls	-7801
▁thoughts	-7802
▁vehicles	-7803
▁wrinkled	-7804
▁Meanwhile	-7805
▁beanstalk	-7806
▁creations	-7807
▁demanding	-7808
▁dizziness	-7809
▁fishermen	-7810
▁observing	-7811
▁preparing	-7812
▁presented	-7813
▁returning	-7814
▁scurrying	-7815
▁sprinkled	-7816
▁characters	-7817
▁classmates	-7818
▁mesmerized	-7819
▁throughout	-7820
▁travelling	-7821
▁Caterpillar	-7822
▁differences	-7823
▁screwdriver	-7824
Op	-7825
fl	-7826
▁5	-7827
Bee	-7828
Hmm	-7829
act	-7830
bed	-7831
ics	-7832
ift	-7833
olo	-7834
sol	-7835
via	-7836
▁Ms	-7837
▁Oh	-7838
▁da	-7839
Dear	-7840
Does	-7841
Luna	-7842
Rock	-7843
acle	-7844
anga	-7845
asha	-7846
aven	-7847
bird	-7848
cent	-7849
cted	-7850
date	-7851
elie	-7852
hole	-7853
iece	-7854
ivia	-7855
jack	-7856
lect	-7857
line	-7858
ouqu	-7859
rave	-7860
upin	-7861
uses	-7862
▁Cle	-7863
▁Fix	-7864
▁Fun	-7865
▁Har	-7866
▁Jed	-7867
▁Oat	-7868
▁Poo	-7869
▁Sly	-7870
▁Syl	-7871
▁bud	-7872
▁eld	-7873
▁gap	-7874
▁lun	-7875
▁shh	-7876
▁sou	-7877
Leave	-7878
Trust	-7879
acher	-7880
athan	-7881
cloud	-7882
elope	-7883
esses	-7884
illip	-7885
izzie	-7886
ments	-7887
ndles	-7888
rinky	-7889
veral	-7890
water	-7891
▁Chug	-7892
▁Cook	-7893
▁Dull	-7894
▁Dust	-7895
▁Land	-7896
▁Mina	-7897
▁More	-7898
▁Nina	-7899
▁Only	-7900
▁Peep	-7901
▁Puss	-7902
▁Rory	-7903
▁Sean	-7904
▁Theo	-7905
▁Wait	-7906
▁Wolf	-7907
▁	-7908
e	-7909
a	-7910
t	-7911
o	-7912
h	-7913
n	-7914
d	-7915
i	-7916
s	-7917
r	-7918
l	-7919
y	-7920
m	-7921
.	-7922
w	-7923
u	-7924
p	-7925
g	-7926
c	-7927
f	-7928
b	-7929
,	-7930
k	-7931
T	-7932
"	-7933
v	-7934
S	-7935
H	-7936
x	-7937
|	-7938
I	-7939
O	-7940
'	-7941
L	-7942
!	-7943
B	-7944
M	-7945
<	-7946
>	-7947
A	-7948
W	-7949
j	-7950
?	-7951
Y	-7952
z	-7953
J	-7954
F	-7955
D	-7956
C	-7957
q	-7958
N	-7959
E	-7960
K	-7961
P	-7962
G	-7963
R	-7964
-	-7965
”	-7966
“	-7967
:	-7968
’	-7969
Z	-7970
V	-7971
U	-7972
3	-7973
Q	-7974
;	-7975
–	-7976
1	-7977
X	-7978
‘	-7979
—	-7980
0	-7981
=	-7982
2	-7983
5	-7984
/	-7985
4	-7986
8	-7987
9	-7988
é	-7989
7	-7990
	-7991
`	-7992
	-7993
	-7994
6	-7995
ñ	-7996
